{"0":"!","1":"\"","2":"#","3":"$","4":"%","5":"&","6":"'","7":"(","8":")","9":"*","10":"+","11":",","12":"-","13":".","14":"/","15":"0","16":"1","17":"2","18":"3","19":"4","20":"5","21":"6","22":"7","23":"8","24":"9","25":":","26":";","27":"<","28":"=","29":">","30":"?","31":"@","32":"A","33":"B","34":"C","35":"D","36":"E","37":"F","38":"G","39":"H","40":"I","41":"J","42":"K","43":"L","44":"M","45":"N","46":"O","47":"P","48":"Q","49":"R","50":"S","51":"T","52":"U","53":"V","54":"W","55":"X","56":"Y","57":"Z","58":"[","59":"\\","60":"]","61":"^","62":"_","63":"`","64":"a","65":"b","66":"c","67":"d","68":"e","69":"f","70":"g","71":"h","72":"i","73":"j","74":"k","75":"l","76":"m","77":"n","78":"o","79":"p","80":"q","81":"r","82":"s","83":"t","84":"u","85":"v","86":"w","87":"x","88":"y","89":"z","90":"{","91":"|","92":"}","93":"~","94":"¡","95":"¢","96":"£","97":"¤","98":"¥","99":"¦","100":"§","101":"¨","102":"©","103":"ª","104":"«","105":"¬","106":"®","107":"¯","108":"°","109":"±","110":"²","111":"³","112":"´","113":"µ","114":"¶","115":"·","116":"¸","117":"¹","118":"º","119":"»","120":"¼","121":"½","122":"¾","123":"¿","126":"Â","132":"È","133":"É","136":"Ì","137":"Í","146":"Ö","147":"×","149":"Ù","151":"Û","156":"à","157":"á","158":"â","159":"ã","160":"ä","170":"î","171":"ï","175":"ó","176":"ô","188":"Ā","189":"ā","190":"Ă","191":"ă","192":"Ą","193":"ą","194":"Ć","195":"ć","196":"Ĉ","197":"ĉ","198":"Ċ","200":"Č","201":"č","203":"ď","209":"ĕ","210":"Ė","212":"Ę","214":"Ě","218":"Ğ","219":"ğ","220":"Ġ","221":"ġ","222":"Ģ","223":"ģ","224":"Ĥ","225":"ĥ","226":"Ħ","227":"ħ","228":"Ĩ","229":"ĩ","230":"Ī","231":"ī","232":"Ĭ","233":"ĭ","234":"Į","235":"į","236":"İ","237":"ı","238":"Ĳ","239":"ĳ","240":"Ĵ","241":"ĵ","242":"Ķ","243":"ķ","244":"ĸ","245":"Ĺ","246":"ĺ","247":"Ļ","248":"ļ","249":"Ľ","250":"ľ","251":"Ŀ","252":"ŀ","253":"Ł","254":"ł","255":"Ń","256":"ĠĠ","257":"ĠĠĠĠ","258":"in","259":"Ġt","260":"ĠĠĠĠĠĠĠĠ","261":"er","262":"ĠĠĠ","263":"on","264":"Ġa","265":"re","266":"at","267":"st","268":"en","269":"or","270":"Ġth","271":"ĊĊ","272":"Ġc","273":"le","274":"Ġs","275":"it","276":"an","277":"ar","278":"al","279":"Ġthe","280":";Ċ","281":"Ġp","282":"Ġf","283":"ou","284":"Ġ=","285":"is","286":"ĠĠĠĠĠĠĠ","287":"ing","288":"es","289":"Ġw","290":"ion","291":"ed","292":"ic","293":"Ġb","294":"Ġd","295":"et","296":"Ġm","297":"Ġo","298":"ĉĉ","299":"ro","300":"as","301":"el","302":"ct","303":"nd","304":"Ġin","305":"Ġh","306":"ent","307":"id","308":"Ġn","309":"am","310":"ĠĠĠĠĠĠĠĠĠĠĠ","311":"Ġto","312":"Ġre","313":"--","314":"Ġ{","315":"Ġof","316":"om","317":");Ċ","318":"im","319":"čĊ","320":"Ġ(","321":"il","322":"//","323":"Ġand","324":"ur","325":"se","326":"Ġl","327":"ex","328":"ĠS","329":"ad","330":"Ġ\"","331":"ch","332":"ut","333":"if","334":"**","335":"Ġ}","336":"em","337":"ol","338":"ĠĠĠĠĠĠĠĠĠĠĠĠĠĠĠĠ","339":"th","340":")Ċ","341":"Ġ{Ċ","342":"Ġg","343":"ig","344":"iv","345":",Ċ","346":"ce","347":"od","348":"Ġv","349":"ate","350":"ĠT","351":"ag","352":"ay","353":"Ġ*","354":"ot","355":"us","356":"ĠC","357":"Ġst","358":"ĠI","359":"un","360":"ul","361":"ue","362":"ĠA","363":"ow","364":"Ġ'","365":"ew","366":"Ġ<","367":"ation","368":"()","369":"Ġfor","370":"ab","371":"ort","372":"um","373":"ame","374":"Ġis","375":"pe","376":"tr","377":"ck","378":"âĢ","379":"Ġy","380":"ist","381":"----","382":".ĊĊ","383":"he","384":"Ġe","385":"lo","386":"ĠM","387":"Ġbe","388":"ers","389":"Ġon","390":"Ġcon","391":"ap","392":"ub","393":"ĠP","394":"ĠĠĠĠĠĠĠĠĠĠĠĠĠĠĠ","395":"ass","396":"int","397":">Ċ","398":"ly","399":"urn","400":"Ġ$","401":";ĊĊ","402":"av","403":"port","404":"ir","405":"->","406":"nt","407":"ction","408":"end","409":"Ġde","410":"ith","411":"out","412":"turn","413":"our","414":"ĠĠĠĠĠ","415":"lic","416":"res","417":"pt","418":"==","419":"Ġthis","420":"Ġwh","421":"Ġif","422":"ĠD","423":"ver","424":"age","425":"ĠB","426":"ht","427":"ext","428":"=\"","429":"Ġthat","430":"****","431":"ĠR","432":"Ġit","433":"ess","434":"ĠF","435":"Ġr","436":"os","437":"and","438":"Ġas","439":"ect","440":"ke","441":"rom","442":"Ġ//","443":"con","444":"ĠL","445":"(\"","446":"qu","447":"lass","448":"Ġwith","449":"iz","450":"de","451":"ĠN","452":"Ġal","453":"op","454":"up","455":"get","456":"Ġ}Ċ","457":"ile","458":"Ġan","459":"ata","460":"ore","461":"ri","462":"Ġpro","464":"ĉĉĉĉ","465":"ter","466":"ain","467":"ĠW","468":"ĠE","469":"Ġcom","470":"Ġreturn","471":"art","472":"ĠH","473":"ack","474":"import","475":"ublic","476":"Ġor","477":"est","478":"ment","479":"ĠG","480":"able","481":"Ġ-","482":"ine","483":"ill","484":"ind","485":"ere","486":"::","487":"ity","488":"Ġ+","489":"Ġtr","490":"elf","491":"ight","492":"('","493":"orm","494":"ult","495":"str","496":"..","497":"\",","498":"Ġyou","499":"ype","500":"pl","501":"Ġnew","502":"Ġj","503":"ĠĠĠĠĠĠĠĠĠĠĠĠĠĠĠĠĠĠĠ","504":"Ġfrom","505":"Ġex","506":"ĠO","507":"ld","508":"Ġ[","509":"oc","510":":Ċ","511":"Ġse","512":"Ġle","513":"--------","514":".s","515":"{Ċ","516":"',","517":"ant","518":"Ġat","519":"ase","520":".c","521":"Ġch","522":"</","523":"ave","524":"ang","525":"Ġare","526":"Ġint","527":"âĢĻ","528":"_t","529":"ert","530":"ial","531":"act","532":"}Ċ","533":"ive","534":"ode","535":"ost","536":"Ġclass","537":"Ġnot","538":"og","539":"ord","541":"all","542":"ff","543":"();Ċ","544":"ont","545":"ime","546":"are","547":"ĠU","548":"Ġpr","549":"Ġ:","550":"ies","551":"ize","552":"ure","553":"Ġby","554":"ire","555":"Ġ}ĊĊ","556":".p","557":"Ġsh","558":"ice","559":"ast","560":"ption","561":"tring","562":"ok","563":"__","564":"cl","565":"##","566":"Ġhe","567":"ard","568":").","569":"Ġ@","570":"iew","571":"ĉĉĉ","572":"Ġwas","573":"ip","574":"this","575":"Ġu","576":"ĠThe","577":"ide","578":"ace","579":"ib","580":"ac","581":"rou","582":"Ġwe","583":"ject","584":"Ġpublic","585":"ak","586":"ve","587":"ath","588":"oid","589":"Ġ=>","590":"ust","591":"que","592":"Ġres","593":"))","594":"'s","595":"Ġk","596":"ans","597":"yst","598":"unction","599":"********","600":"Ġi","601":"Ġus","602":"pp","603":"one","604":"ail","605":"====","606":"name","607":"Ġstr","608":"Ġ/","609":"Ġ&","610":"ach","611":"div","612":"ystem","613":"ell","614":"Ġhave","615":"err","616":"ould","617":"ull","618":"pon","619":"ĠJ","620":"_p","621":"Ġ==","622":"ign","623":"St","624":".Ċ","625":"Ġpl","626":");ĊĊ","627":"form","628":"put","629":"ount","630":"}ĊĊ","631":"dd","632":"ite","633":"Ġget","634":"rr","635":"ome","636":"ĠâĢ","637":"aram","638":"cc","639":"Ġ*/","640":"ER","641":"In","642":"les","643":"_s","644":"ong","645":"ie","646":"Ġcan","647":"ĠV","648":"erv","649":"pr","650":"Ġun","651":"row","652":"ber","653":"Ġdo","654":"ll","655":"Ġel","656":"Ġself","657":"ated","658":"ary","659":"Ġ.","660":"']","661":"ud","662":"Ġen","663":"ĠTh","664":"ĠĠĠĠĠĠĠĠĠĠĠĠĠĠĠĠĠĠĠĠĠĠĠ","665":"te","666":"_c","667":"uct","668":"Ġab","669":"ork","670":".get","671":"Ġ#","672":"aw","673":"ress","674":"ob","675":"Name","676":"app","677":"['","678":"Ġall","679":"ory","680":"ition","681":"ance","682":"ear","683":"Ġcont","684":"vent","685":"ia","686":"Ġwill","687":"IN","688":"ĠĠĠĠĠĠĠĠĠ","689":"return","690":"Ġ</","691":"data","692":")ĊĊ","693":"Re","694":"ple","695":"ild","696":"ther","697":"Ġyour","698":"\"Ċ","699":"($","700":"Ġout","701":"),","702":"Ġhas","703":"String","704":"so","705":"Ġup","706":"ax","707":"Ġdef","708":"Ġbo","709":"ge","710":"alse","711":"ON","712":"per","713":"ich","714":"Ġbut","715":"ĠĊ","716":"Ġ_","717":"_m","718":"add","719":"quest","720":"odel","721":"self","722":"ery","723":"ft","724":"ens","726":"ake","727":".C","728":"Ġgo","729":"Ġfunction","730":"ĠK","731":"ivate","732":"Ġim","733":"Ġconst","734":".t","735":"Ġ*/Ċ","736":");čĊ","737":"Ġvoid","738":"Ġset","739":"ĠSystem","740":"cri","741":"()Ċ","742":"li","743":"ĉif","744":".m","745":"ally","746":"set","747":"ep","748":"âĢĻs","749":"bo","750":"def","751":"',Ċ","752":"Ġme","753":"Ġ!","754":"atch","755":"\">","756":"\",Ċ","757":"ec","758":"ĠIn","759":"ph","760":"Ġ|","761":"_f","762":"Ġvar","763":"ence","764":"Id","765":"ree","766":"ink","767":"lect","768":"ug","769":"eth","770":"Ġelse","771":"----------------","772":"cont","773":"Ġso","774":"atic","775":"Ġlo","776":"pro","777":"ton","778":"ss","779":"own","780":"abel","781":"oint","782":"ous","783":"eld","784":"ST","785":"The","786":"ĠĠĠĠĠĠĠĠĠĠĠĠĠĠĠĠĠĠĠĠĠĠĠĠĠĠĠĠĠĠĠĠ","787":"RE","788":"\":","789":"olor","790":"tp","791":"eg","792":"key","793":"ude","794":"ĠSt","795":"ound","796":"Ġar","797":"\");Ċ","798":"ener","799":"ser","801":"essage","802":"fer","803":"Ġmore","804":"ations","805":"ents","806":"Ġhis","807":"Ġthey","808":".S","809":"ĠY","810":"use","811":"ne","812":"ish","813":"old","814":"_d","815":"io","816":"ield","817":"Ġper","818":"Cont","819":"ings","820":"####","821":"Ġdata","822":"Ġsa","823":"ef","824":"fo","825":"Ġone","826":"eng","827":"Ġdis","828":"AT","829":"Ġname","830":"Ġtrue","831":"val","832":"led","833":".f","834":"Ġne","835":"Ġend","836":".T","837":"cre","838":"ark","839":"log","840":"Ex","841":"error","842":"_id","843":"urre","844":"ange","845":"Ġnull","846":"rray","847":"Ġmy","848":"pan","849":"ict","850":"ator","851":"View","852":"List","853":"ĉreturn","854":"âĢĿ","855":"Ġpre","856":"Ġx","857":"clude","858":"arg","859":"ov","860":".h","861":"Ġ>","862":"Ġtheir","863":"')","864":"irst","865":"ick","866":"gh","867":"LE","868":"OR","869":"Ġprivate","870":"tem","871":"čĊčĊ","872":"user","873":"Ġ)","874":"com","875":".A","876":"\";Ċ","877":"Ġid","878":"read","879":"Ġwho","880":"_b","881":"\">Ċ","882":"Ġtime","883":"Ġman","884":"ry","886":"roup","887":"rop","888":"public","889":"vel","890":"umber","891":"ble","892":"Ġwhich","894":"Ġany","895":"Ġfalse","896":"we","897":"Ġvalue","898":"Ġli","899":"\")","900":"nder","901":"gr","902":"Ġno","903":"param","904":"fig","905":".com","906":"Ġapp","907":"_l","908":"ions","909":".D","910":"ĠCh","911":"Ġabout","912":"Ġadd","913":"Ġsu","914":"Ġstring","915":"ID","916":"Ġover","917":"string","918":".l","920":"_C","921":"]Ċ","922":"Ġqu","923":"ĠString","924":"ca","925":"SE","926":"Ġro","927":"sh","928":"ual","929":"Type","930":"son","931":"new","932":"ern","933":"Ġag","934":"AR","935":"];Ċ","936":"].","937":"Ġ?","938":"ical","939":"Ġdes","940":"uth","941":"ix","942":"ays","943":"Ġtype","944":"'t","945":"ault","946":"Ġinter","947":"var","948":".b","949":"Ġpart","950":".d","951":"urrent","952":"IT","953":"EN","954":"enc","955":"(f","956":"ra","957":"value","958":"cho","959":"utton","960":"ose","961":"Ġ!=","962":"ater","963":"Ã©","964":"reate","965":"oll","966":"pos","967":"yle","968":"ng","969":"AL","970":"using","971":"ames","972":"Ġ{čĊ","973":"ates","974":"ely","975":"Ġwork","976":"Ġem","977":"inal","978":"Ġsp","979":"Ġwhen","980":".set","981":"ĠĠĠĠĠĠ","982":"):Ċ","983":"to","984":"quire","985":"indow","986":"lement","987":"pect","988":"ash","989":"[i","990":"Ġuse","991":".F","992":"pec","993":"Ġad","994":"ove","995":"ception","997":"include","998":"ader","999":"ĠĠĠĠĠĠĠĠĠĠĠĠĠĠĠĠĠĠĠĠĠĠĠĠĠĠĠ","1000":"atus","1001":"Th","1002":"itle","1003":"rit","1004":"void","1005":"().","1006":"(Ċ","1007":"Ġoff","1008":"Ġother","1009":"Ġ&&","1011":"ms","1012":"Ġbeen","1013":"Ġte","1014":"ml","1015":"co","1016":"nc","1018":"Ġ%","1019":"**Ċ","1020":"ann","1021":"ade","1022":"ĊĊĊĊ","1023":"lock","1024":"const","1025":"ponse","1026":"Ġsup","1027":"++","1028":"date","1029":"Ġacc","1030":"Ġhad","1031":"Ġbu","1032":"ĠRe","1033":"Ġwere","1034":"Ġfile","1035":"Ġwould","1036":"ĠâĢľ","1037":"ven","1038":"iss","1039":"Ġour","1040":"class","1041":"raw","1042":"Ġyear","1043":"Data","1044":"Ġval","1045":"Ġsome","1046":"fter","1047":"ys","1048":"Ġ///","1049":"round","1050":"view","1051":"Ġpe","1052":"Ġthere","1053":"Ġsaid","1054":"du","1055":"of","1056":"line","1057":"/*","1058":"duct","1059":"Ġher","1060":"ĠĠĠĠĠĠĠĠĠĠĠĠĠ","1061":"Res","1062":"Ġco","1063":"Ġcomm","1064":"ise","1065":"min","1066":"ĠĠĠĠĊ","1067":"#include","1068":"ethod","1069":".P","1070":"ute","1071":"Ġass","1072":"Int","1073":"ask","1074":"loc","1075":"Ġlike","1076":"ody","1077":"Ġlet","1078":"load","1079":"Ġam","1080":"rol","1081":"Ġgr","1082":"yp","1083":"Ġalso","1084":"ĠIt","1085":"url","1086":"ific","1087":"ors","1088":"_P","1089":"_n","1090":"igh","1091":"Ġthan","1092":"Com","1093":"AN","1094":"UL","1095":"ating","1096":"ĠThis","1097":"ref","1098":"_S","1099":"Ġstatic","1100":"roll","1101":"Ġjust","1102":"Ġresult","1103":"ian","1104":"idth","1105":"Ġthem","1106":"));Ċ","1107":"der","1108":"reak","1109":"Con","1110":"://","1111":"ule","1112":"...","1113":"arch","1114":"ement","1115":"Ġ<<","1116":"ush","1117":"ense","1118":"arr","1119":"Ġinto","1120":"cess","1121":"amp","1122":"ied","1123":"ument","1124":"Ġ\\","1125":"],","1126":"wo","1127":"als","1128":"Ġwhat","1129":"anc","1130":"Value","1131":"='","1132":"olum","1133":"Ġpos","1134":"ages","1135":"ayer","1136":"Ġsc","1137":"ues","1138":"\")Ċ","1139":"_T","1140":"Ġlist","1141":"(s","1142":"Ġcase","1143":"Ch","1146":"ponent","1147":"Ġz","1148":"Ġkn","1149":"let","1150":"DE","1151":"red","1152":"Ġfe","1154":"Ġ,","1155":"(t","1156":"Ġfirst","1158":"word","1159":"Ġimport","1160":"Ġact","1161":"Ġchar","1162":"CT","1163":"ĠTr","1164":"ople","1165":"={","1166":"ĉf","1167":"ient","1168":"cent","1169":".j","1170":"lection","1171":"))Ċ","1172":"Ġonly","1173":"Ġprint","1174":"mer","1175":".W","1176":"ock","1177":"Ġ--","1178":"Text","1179":"Ġop","1180":"ank","1181":"Ġits","1182":"Ġback","1183":"[\"","1184":"Ġneed","1185":"Ġcl","1186":"Ġsub","1187":"Ġla","1188":"((","1189":".\"","1190":"Object","1191":"Ġstart","1192":"file","1193":"(self","1194":"ner","1195":"ey","1196":"Ġuser","1197":"Ġent","1198":"ĠCom","1199":"its","1200":"ĠCon","1201":"ouble","1202":"ower","1203":"item","1204":"very","1205":"ĠWe","1206":"lick","1207":"ĠQ","1208":"php","1210":"':","1211":"ics","1212":"Ġunder","1213":"Ġ*Ċ","1214":".L","1215":");","1216":"ices","1217":"Ġreg","1218":")čĊ","1219":"ĉpublic","1220":"SS","1221":"Ġthen","1222":"reat","1223":"ious","1224":".G","1225":"ek","1226":"irect","1228":"cript","1229":"ning","1230":"ĠUn","1231":"Ġmay","1232":"ĠWh","1233":"Bo","1234":"Item","1235":"struct","1236":".st","1237":"ream","1238":"ible","1239":"loat","1240":"Ġorg","1241":"und","1242":"sum","1243":"_in","1245":"_M","1246":"Ġhow","1247":"rite","1248":"'Ċ","1249":"To","1250":"ww","1251":"Ġpeople","1252":"index","1253":".n","1255":"(m","1256":"ector","1257":"Ġind","1259":"],Ċ","1260":"ĠHe","1261":"_st","1262":"ful","1263":"ole","1264":"){Ċ","1265":"Ġshould","1266":"opy","1267":"elp","1268":"ier","1269":"_name","1270":"erson","1271":"ION","1272":"ote","1273":"Ġtest","1274":"Ġbet","1276":"ular","1277":"ãĢ","1278":"ĠÐ","1279":"bs","1280":"ting","1281":"Ġmake","1282":"Tr","1283":"Ġafter","1285":"RO","1286":"olumn","1287":"rc","1288":"_re","1289":"define","1290":"Ġright","1291":"right","1292":"day","1293":"Ġlong","1294":"[]","1295":"(p","1296":"td","1297":"cond","1298":"ĠPro","1299":"Ġrem","1300":"ptions","1301":"vid","1302":".g","1303":"Ġext","1304":"Ġ__","1305":"')Ċ","1306":"pace","1307":"mp","1308":"Ġmin","1309":"stance","1310":"air","1311":"action","1312":"wh","1313":"type","1314":"util","1315":"ait","1317":"IC","1318":"text","1319":"Ġph","1320":"Ġfl","1321":".M","1323":"br","1324":"fore","1325":"ersion","1326":"),Ċ","1327":".re","1328":"ateg","1329":"Ġloc","1330":"ins","1331":"-s","1332":"trib","1333":"ĠInt","1334":"Ġarray","1335":",\"","1336":"Pro","1337":"(c","1338":"ession","1339":">ĊĊ","1340":"Ġshe","1341":"\"]","1342":"aph","1343":"Ġexp","1344":"erty","1345":"ĠSe","1346":"Ġpar","1347":"unc","1348":"ET","1349":"Ġread","1350":"print","1351":"Ġrel","1352":"Ġform","1353":"Ġdr","1354":"Exception","1355":"input","1356":"Ġtrans","1357":"########","1358":"order","1359":"By","1360":"Ġaw","1361":"ities","1362":"uff","1363":"play","1364":".add","1365":"ĠâĢĵ","1366":"Ġwant","1367":"Ġcomp","1368":"ments","1369":"Ġ||","1370":"az","1371":"be","1372":"Ġnumber","1373":"Ġrequire","1374":"ĠEx","1375":"Ġcol","1376":"Ġkey","1377":"ember","1378":"Ġtwo","1379":"Ġsize","1380":"Ġwhere","1381":"UT","1382":"result","1383":"ĠĠĠĠĠĠĠĠĠĠĠĠĠĠĠĠĠĠĠĠĠĠĠĠĠĠĠĠĠĠĠ","1384":"ough","1385":"orld","1386":"ood","1387":"uch","1388":"ative","1389":"ger","1390":"arent","1391":"Ġ/*","1392":"Ġarg","1393":"Ġwhile","1394":"(this","1395":"Ġrec","1396":"Ġdif","1397":"State","1398":"Ġspec","1399":"ride","1400":"_F","1401":"Ġlook","1402":"AM","1403":"ility","1404":"eter","1405":"âĢĻt","1406":"ĊĊĊ","1407":"ayout","1408":"--------------------------------","1409":"ager","1410":"Ġcould","1411":"Ġbr","1412":"ends","1413":"ures","1414":"Ġknow","1415":"ets","1416":"ĠIf","1417":"ĠSh","1418":".w","1419":"back","1420":"Ġser","1421":"Ġ+=","1422":"Ġfr","1423":"());Ċ","1424":"Ġhand","1425":"Ind","1427":"Im","1428":"();ĊĊ","1429":"Ġmost","1430":"Ġtry","1431":"Ġnow","1432":"rough","1433":">čĊ","1435":"Ġhim","1436":"._","1437":"ify","1438":"Ġbreak","1439":"Ġ);Ċ","1440":"ren","1441":"#define","1442":"itt","1443":"Ġap","1444":"ĉc","1445":"(n","1446":"ĠYou","1447":":ĊĊ","1448":"-m","1449":"Ġevery","1450":"ustom","1453":"cription","1454":"Error","1455":"-b","1456":"Ð¾","1457":"][","1458":"trans","1459":"Ġpoint","1460":"Ġstd","1461":"Ġfil","1462":"Time","1463":"Ġmod","1464":"Ġ->","1465":"Ġerror","1466":"ah","1467":"Ġtext","1468":"roller","1469":"lose","1470":"ql","1471":"Ġpol","1473":"Ġshow","1474":"User","1475":"ased","1476":"Ġ{ĊĊ","1477":"Ġfind","1479":"ED","1480":"span","1481":"enu","1482":"Ġcurrent","1483":"Ġused","1484":"cept","1486":"Ġplay","1487":"Ġlog","1488":"ution","1489":"fl","1490":"Ġsee","1492":"Ġhelp","1493":"Ġthese","1494":"Ġpass","1495":"Ġdown","1496":"Ġeven","1497":"ason","1499":"from","1500":"(d","1501":"Ġbl","1502":"label","1503":"else","1504":"Ðµ","1505":"Ġ(!","1506":"ized","1507":"(),","1508":"Ġob","1509":"Ġitem","1510":"ump","1511":"UR","1512":"orn","1513":"Ġdon","1514":"Se","1515":"man","1516":"ample","1517":"tn","1518":"================","1519":"He","1520":"gram","1521":"Ġdid","1522":"wn","1523":"_h","1524":"iver","1525":"Ġsm","1526":"Ġthrough","1527":"ĠAn","1528":"che","1529":"Ġinv","1530":"ouse","1531":"Ġes","1532":"ĠNew","1533":"export","1534":"mary","1535":"uto","1536":"ler","1537":"Ġlast","1538":"Ġevent","1539":"try","1541":"ily","1542":"igned","1543":"ines","1544":"ollow","1546":"sole","1547":"lear","1548":"(int","1549":"Ġagain","1550":"Ġhigh","1551":"html","1552":"Index","1553":"uthor","1554":"Ġ/**Ċ","1555":"Ġline","1556":"Event","1557":"_D","1558":"Ġdoes","1559":"itial","1560":"Ġcr","1561":"ars","1562":"Ġtem","1563":"cause","1564":"face","1565":"Ġ`","1566":"_A","1567":"Button","1568":"ature","1569":"ected","1570":"ES","1571":"ister","1572":"ĉĊ","1573":"Ġbefore","1574":"ale","1575":"other","1576":"Ġbecause","1577":"roid","1578":"Ġed","1579":"ik","1580":"reg","1581":"ĠDe","1582":"Ġdist","1583":"},Ċ","1584":"Ġstate","1585":"Ġcons","1586":"rint","1587":"att","1588":"Ġhere","1589":"ined","1590":"Ġfinal","1591":"Ġ\"\"","1592":"Key","1593":"LO","1594":"Ġdel","1595":"pty","1596":"thing","1597":"ĠAnd","1598":"Ġrun","1599":"ĠX","1600":"ym","1601":".app","1602":"Ġvery","1603":"ces","1604":"_N","1605":"ared","1606":"ward","1607":"list","1608":"ited","1609":"olog","1610":"itch","1611":"Box","1612":"ife","1613":"Ġac","1614":"Ġmodel","1615":"Ġmon","1616":"Ġway","1617":"lete","1618":"Ġcall","1619":"Ġatt","1620":"Ġcal","1621":"vert","1622":"Ġdec","1623":"lease","1624":"oun","1626":"fr","1627":"formation","1628":"etail","1629":"Ġnum","1630":"aj","1631":"query","1632":"Ġwell","1633":"Ġobject","1634":"ĠAs","1635":"Ġyears","1636":"Color","1637":"IS","1638":"Ġdefault","1639":"Wh","1640":"Ġins","1641":"aint","1642":"Ġjava","1643":"Ġsim","1644":"ĠAr","1645":"mon","1646":"til","1648":"):","1649":"Set","1650":"atter","1651":"Ġview","1652":"Ġpres","1653":"array","1654":"We","1655":"At","1656":"Ġbel","1657":"Ġmany","1658":"Man","1659":"ender","1660":"Ġbeing","1661":"Ġgood","1663":"ational","1664":"ware","1665":".log","1667":"Ġusing","1668":"_B","1669":"Ġ:=","1670":"_w","1671":"ists","1672":"lish","1673":"Ġstud","1674":"ĠAl","1675":"Ġgu","1676":"config","1677":"uring","1678":"time","1679":"oken","1680":"amespace","1681":"Ġrequest","1682":"Ġchild","1683":"ĠÃ","1684":"lob","1685":"Ġparam","1687":"Ġecho","1688":"function","1690":"ps","1691":"Element","1692":"alk","1693":"lication","1694":"by","1695":"Size","1696":"rawing","1697":"Ġperson","1698":"ĠĠĠĠĠĠĠĠĠĠĠĠĠĠĠĠĠ","1699":"\\n","1700":"object","1701":"ince","1702":"En","1703":"File","1704":"uf","1705":"ffect","1706":"AC","1707":"Ġstyle","1708":"summary","1709":"Ġque","1710":"_r","1711":"Ġ($","1712":"Model","1713":"ident","1714":"Ġmethod","1715":"IL","1716":"ott","1717":"less","1718":"ING","1719":"Ġ()","1720":"Ġexpect","1721":"ync","1722":"package","1723":"urs","1724":"Ġprot","1725":"./","1726":"pre","1727":"Ġ)Ċ","1728":"ma","1729":"Ġsur","1730":"Ġfound","1731":"Info","1732":"par","1733":"imes","1734":".e","1735":"ains","1736":"Ġpost","1737":"-d","1738":"olean","1739":"Ġsl","1740":"PE","1741":"Ġsuch","1742":"select","1743":"ainer","1744":"Ġthink","1745":"Ġdiffer","1746":".r","1747":"/**Ċ","1748":"FF","1749":"ool","1750":"plate","1751":"qual","1752":"ĠFor","1753":"Ġmuch","1754":"uc","1755":"(new","1756":"odule","1757":"Ġsom","1759":"ĠList","1760":"Ġcount","1761":"Ġinst","1762":"char","1763":"mit","1764":".id","1765":"aking","1766":"Ġgener","1767":"px","1768":"vice","1769":"_data","1770":"ĠNULL","1771":"}čĊ","1772":"idd","1773":"ãĢĤ","1774":"Ġmed","1775":"org","1776":"ider","1777":"ache","1778":"work","1779":"Ġcheck","1780":"ween","1781":"Ġ((","1782":"the","1783":"ants","1785":".B","1786":"-c","1787":"Ġopen","1788":"Ġest","1789":"ĠĠĠĠĠĠĠĠĊ","1790":"Ġnext","1791":"IM","1792":"ÑĤ","1793":"OT","1794":"Ã³","1795":"Ġfollow","1796":"content","1797":"ĠĠĠĠĠĠĠĠĠĠĠĠ","1798":"Ġinclud","1799":"HE","1800":"ĠRes","1802":"Ð¸","1803":"Ġcar","1804":"ypes","1805":"image","1806":"Un","1807":"Ġbool","1808":"AD","1809":"Ġgame","1811":"rows","1812":"*/","1813":"velop","1814":".Drawing","1815":"Ġpath","1816":"ision","1817":"Ġeach","1818":"ĠPl","1819":"_type","1820":"Path","1822":"Ġav","1823":"').","1824":"Ġsupport","1825":"ENT","1826":"rem","1827":"\").","1828":"Ġown","1829":"Ġcor","1830":"count","1831":"miss","1832":"ually","1833":"Ġmem","1834":"std","1835":"ience","1836":"search","1837":"\"ĊĊ","1838":"Form","1839":"Ġsex","1840":"ename","1841":"Ġsign","1842":"Ġet","1843":"ĠĠĠĠĠĠĠĠĠĠ","1844":"','","1845":"ĠApp","1846":"Ġthose","1847":"off","1848":"Ġerr","1849":"Ġsystem","1850":"Ġbest","1851":"code","1852":"Ġsame","1853":"Ġdi","1854":"uss","1855":"Ġcreate","1856":"ather","1857":"Array","1858":".in","1859":"fe","1860":"Service","1861":"UN","1862":"ats","1863":"ĠZ","1864":"alth","1865":"Ġmade","1866":"true","1867":"AB","1868":"Ġmark","1869":"rid","1870":"ified","1871":",čĊ","1872":"yn","1873":"press","1874":"Ġgroup","1875":"Ġfin","1877":"Field","1878":"eger","1879":"Ġworld","1880":"iness","1881":"ty","1882":"Ġprocess","1883":"(b","1884":"Ġcre","1885":"arn","1886":"ives","1887":"Ġmain","1889":"_g","1890":"AG","1891":"valid","1892":"img","1893":"PI","1894":"Ġcolor","1895":"Ġreport","1896":"Ġtake","1897":"rib","1898":"OM","1899":"Ġday","1900":"Request","1901":"Ġsk","1902":"bers","1903":"ĉs","1904":".Add","1905":"oot","1906":"Image","1907":"Ġcomple","1908":"ollection","1909":"Ġtop","1910":"Ġfree","1911":"AS","1912":"De","1913":"ĠOn","1914":"IG","1915":"eta","1916":"Date","1917":"Ġaction","1918":"Over","1919":"itor","1920":"ĠĠĠĠĠĠĠĠĠĠĠĠĠĠĠĠĠĠĠĠĠĠĠĠĠĠĠĠĠĠĠĠĠĠĠ","1921":"not","1922":"Ġindex","1923":"her","1924":"icon","1925":"On","1927":"ivity","1928":"mand","1930":"OL","1931":"Ġreal","1932":"Ġmax","1933":"land","1934":"....","1935":"raph","1936":"Ġbuild","1937":"leg","1939":"?ĊĊ","1940":"âĢ¦","1941":"ook","1942":"uck","1943":"Ġmessage","1944":"test","1945":"ivers","1946":"Ġinput","1947":"Ġart","1948":"Ġbetween","1949":"Get","1950":"enter","1951":"ground","1952":"ene","1953":"Ã¡","1954":".length","1955":"Node","1956":"(i","1957":"Class","1958":"for","1959":"ĠâĢĶ","1960":"ten","1961":"oin","1962":"Ġke","1963":"ui","1964":"ĠIN","1965":"Ġtable","1966":"sub","1967":"ĠLe","1968":"Ġhead","1969":"Ġmust","1971":".util","1972":"Context","1973":"Ġorder","1974":"Ġmov","1975":"over","1976":"Ġcontin","1977":"Ġsay","1978":"static","1980":"ĠclassName","1981":"pany","1982":"Ġter","1983":"head","1984":"rg","1985":"Ġproduct","1986":"This","1987":".âĢĿ","1988":"ĠBut","1989":"loy","1990":"Ġdouble","1991":"sg","1992":"Ġplace","1993":".x","1994":"message","1995":"Ġinformation","1996":"private","1998":"ced","1999":"db","2000":"\"></","2001":"Param","2002":"icle","2003":"Ġweek","2004":"Ġprop","2005":"table","2006":"idget","2007":"place","2008":"Prop","2009":"ĠAll","2010":"els","2011":"box","2012":".ĊĊĊĊ","2013":".R","2014":"ĠTo","2015":"iter","2016":"Sh","2017":"uration","2018":"older","2019":"_list","2020":"come","2021":"Ġsw","2022":"ization","2023":"ĉfor","2024":"bl","2025":"Ġprogram","2026":"(e","2027":"ape","2028":"check","2029":".Forms","2030":"Ġund","2032":"ags","2033":"Ġresponse","2034":"US","2035":"request","2036":"Ġstruct","2038":"Ġcode","2039":"_H","2040":"uffer","2041":"Ġwithout","2043":"Manager","2044":"ilter","2045":"PO","2046":"ĉthis","2047":"option","2048":"Ġsol","2049":"Ġ===","2050":"akes","2051":"Controller","2052":"Message","2053":"Ġref","2054":"ever","2055":"ĠSo","2056":"aining","2057":".append","2058":"Ġstill","2060":"Ġassert","2061":"med","2062":"Ġcap","2064":"Ġrep","2065":"tings","2066":"ved","2067":".N","2068":"api","2069":"OD","2070":"Ġfield","2071":"iven","2072":"oto","2073":"âĢľ","2074":"col","2075":"(x","2076":"ght","2077":"Result","2078":"Code","2079":".is","2080":"link","2081":"Ġcour","2082":"An","2083":"Ġteam","2084":"ĉint","2085":"ift","2086":"Ġsecond","2087":"Ġgoing","2088":"Ġrange","2089":"_E","2090":"ness","2091":"Ġfam","2092":"Ġnil","2093":"ĠCont","2094":"ailable","2095":"utes","2096":"atab","2097":"Ġfact","2098":"Ġvis","2099":"(&","2100":"ĠAN","2101":"Al","2102":"title","2103":"Ġandroid","2104":"CE","2105":"\\\"","2106":"irt","2107":"Ġwrit","2108":"Ð½","2109":"ĉm","2111":"ond","2112":"Ġret","2113":"osition","2114":"Ġhome","2115":"Ġleft","2116":"args","2117":"meric","2118":"Ġdirect","2119":"oci","2120":"Pl","2121":"As","2122":"ret","2123":"ado","2124":"Of","2125":"chn","2126":"ĠGet","2127":"ee","2128":"ross","2129":"();","2130":"____","2131":".ph","2132":"It","2133":"oute","2134":"Ġexper","2135":"chool","2136":"www","2137":"},","2138":"Ġallow","2139":"ĠÂ","2140":"())","2141":"size","2142":"ism","2143":"ai","2144":"tract","2145":"ane","2146":"...ĊĊ","2147":"context","2148":"Ġbeg","2149":"CH","2150":"Ġpage","2151":"hip","2152":"no","2153":"core","2154":"sp","2155":"Ġdifferent","2156":"iable","2157":"ĠMe","2159":"button","2160":"ĠIs","2161":"ervices","2162":"Ġca","2163":"Ġaround","2164":"App","2165":"ration","2166":"Ġrece","2167":"Ġreally","2168":"Ġimage","2169":"Ġtarget","2170":"Ġdep","2172":"tra","2173":"ingle","2174":"ital","2176":"Ġboth","2178":"arm","2179":"=>","2180":"aterial","2181":"iled","2182":"Ġput","2183":"Qu","2184":"ÑĢ","2185":"ung","2186":"map","2187":"ĉĉĉĉĉĉĉĉ","2188":"Ġlevel","2189":"Component","2190":"book","2191":"creen","2193":"Ġconfig","2194":"ãģ","2195":"Or","2196":".data","2197":"Ġdocument","2198":"\",\"","2199":"tribute","2200":"ux","2201":"Log","2202":"ference","2203":"post","2204":"_e","2205":"Ġlocal","2206":"andom","2207":"assert","2208":"Val","2209":"lected","2210":"ina","2212":"Add","2213":"Ġcontent","2214":".print","2215":"signed","2216":"ric","2217":".\"ĊĊ","2218":"Ġfa","2219":"!ĊĊ","2220":"-f","2221":"ived","2222":"Ġquest","2223":".ex","2224":"Ġfloat","2225":"Ġdevelop","2227":"Map","2228":"ading","2230":"UE","2231":"namespace","2232":"_O","2233":"ĉb","2234":".Get","2235":">(","2236":"json","2237":"etails","2238":"Ġtoo","2239":"Ġextends","2240":"ĠNone","2241":"Ġfore","2242":"(String","2243":"format","2244":"Ġgreat","2245":"inter","2246":"cale","2247":"Ñģ","2248":"ron","2249":"iving","2250":"Ent","2251":"ency","2252":"xt","2253":"oy","2254":"Ġmonth","2255":"Ġhapp","2256":"Ġsuper","2257":"bar","2258":"default","2259":"_de","2260":"ords","2261":"ln","2262":"({Ċ","2263":"ĠInd","2264":"ases","2265":"Ġtitle","2266":"Ġcontext","2267":"oh","2268":"-p","2269":"Em","2270":"Ġmet","2271":"Test","2272":"Ġlife","2273":"_v","2274":"ĠUS","2275":"UI","2276":"ocation","2277":"md","2278":"Ġ[Ċ","2279":"Ġ]","2280":"sw","2282":"script","2283":"ential","2284":"ways","2285":".de","2286":"Ġsrc","2287":"Ġcatch","2288":"ĠAmeric","2290":"ĠĠĠĠĠĠĠĠĠĠĠĠĠĠ","2291":"Ġpay","2292":"plit","2293":"âĢĶ","2294":"Ġcoun","2295":"obj","2297":"Ġchange","2298":"ething","2299":"'re","2300":"aster","2301":"los","2302":"lation","2303":"ĠĠĊ","2304":"Le","2305":"Ã¤","2306":"({","2307":"ready","2308":"ĠNo","2309":"Ġposition","2310":"Ġold","2311":"Ġbook","2312":"abled","2313":"bug","2314":"Hand","2315":"};ĊĊ","2317":"aving","2318":"Ġgover","2319":"Ġversion","2320":"System","2321":"nect","2322":"response","2323":"Style","2324":"Up","2325":"angu","2326":"Ġthree","2327":"init","2328":"ero","2329":"Ġlaw","2331":"Ġbase","2332":"email","2333":"(l","2334":"_V","2335":"Ġconf","2336":"ATE","2337":"Ġduring","2338":"tes","2339":"Ġconsole","2340":"ĠPr","2341":"Ġspe","2342":"ves","2343":"path","2345":"dition","2346":"_to","2347":"ards","2348":"Ġagainst","2349":"etwork","2350":"ĠPh","2351":"_L","2352":"cur","2353":"imit","2354":"With","2355":"Ġpower","2356":"ium","2358":"Ġwom","2359":"left","2360":"ources","2361":"atri","2362":"ĠIm","2363":"ĠMan","2364":"orth","2365":"${","2366":"quals","2367":"ese","2368":"_size","2369":"Ġiss","2370":"otal","2371":"-g","2372":"ique","2373":"rame","2374":"Ġwidth","2375":"erg","2376":")(","2377":"ittle","2378":"TR","2379":"ĠThey","2380":"ences","2381":"rl","2382":"ons","2383":"Ġlabel","2384":".y","2385":"-t","2386":"update","2387":"anel","2388":"sc","2389":".to","2390":"Ġproject","2391":"Ã¼","2392":"Ġelement","2393":"Ġsuccess","2394":"ĉĉĊ","2395":".sh","2396":"ram","2397":"ched","2398":"())Ċ","2399":"Ġ(Ċ","2400":"Ġdate","2401":"Ġtot","2402":"_ST","2403":"All","2404":"ification","2406":"Ġtri","2407":"chem","2408":"my","2409":"Ġbig","2410":"ĠAd","2411":"ĠAt","2412":"ots","2413":"num","2414":"Act","2415":"Ġmap","2416":"era","2417":"cope","2418":".$","2419":",âĢĿ","2420":"Ġpop","2421":"Ġfew","2422":"Ġlen","2423":"uid","2424":"eters","2425":"ules","2426":"ÃŃ","2427":"source","2428":"https","2429":"Ġdem","2430":"Ġear","2431":"################","2432":"Ġmatch","2433":"ories","2434":"aces","2435":"ĠCl","2436":"Ġnode","2437":"irc","2438":"local","2439":"unity","2440":"};Ċ","2441":"Ġanother","2442":"<<","2443":"ogle","2444":"Ġsit","2445":"ework","2446":"TE","2447":".I","2448":"NS","2449":"ology","2450":"ought","2451":".Cont","2452":">>","2453":"Ġcare","2454":"state","2456":"Ġeffect","2457":"++)","2458":"_file","2459":"ending","2460":"Line","2461":"For","2462":"ior","2463":"ĠSc","2464":"Ġfun","2466":"ĉelse","2467":"])","2468":"start","2469":"vious","2470":"Ġ},","2471":"ours","2472":"Ġleg","2473":"Ġservice","2474":"Ġsince","2475":"iron","2477":"Ġnon","2478":"Ġlos","2479":"iction","2480":"Ġfull","2481":"acter","2482":"board","2484":"Ġturn","2485":"ither","2486":".size","2487":"Ġbody","2488":"resh","2489":"eturn","2490":"(_","2491":"yles","2492":"ormal","2493":"pi","2494":"Ġsomething","2495":"!--","2496":"uint","2498":"Ġstand","2500":"Ġavailable","2501":"mt","2502":"ĠBl","2503":"Ġ...","2504":"Ġblock","2505":"Input","2506":"Ġkeep","2507":"Count","2508":"open","2509":"Ġ['","2510":"Ġthrow","2512":"Action","2513":"Ġthings","2514":"True","2515":"Ġurl","2516":"ĠBo","2517":"printf","2518":"Ġred","2519":"js","2520":".create","2521":"ĠOr","2522":"Status","2523":"Instance","2524":"Ġcontrol","2525":"Ġcome","2526":"Ġcustom","2527":"location","2528":"model","2529":"ĠčĊ","2530":"Ġsource","2531":"Ġeas","2532":".out","2533":"]ĊĊ","2534":"oney","2535":"Ġawait","2536":"Ġpartic","2537":"AP","2539":"odes","2540":"_pro","2541":"ply","2543":"Ġprov","2544":"Ġmill","2546":"])Ċ","2547":"Ġchang","2548":"Ġask","2549":"ĠĠĠĠĠĠĠĠĠĠĠĠĠĠĠĠĠĠĠĠĠ","2550":"Ġoutput","2551":"Ġemail","2552":".push","2554":"ination","2555":"atrix","2556":"Table","2558":"]);Ċ","2559":"ĠĠĠĠĠĠĠĠĠĠĠĠĠĠĠĠĠĠĠĠĠĠĠĠĠĠĠĠĠĠĠĠĠĠĠĠĠĠĠ","2560":"Ġdisc","2561":"([","2562":"Ġbusiness","2563":"height","2564":".html","2565":"ta","2566":"field","2567":"Ġrequired","2568":"_R","2569":"Ġgovern","2570":"}čĊčĊ","2571":"lex","2572":".,","2573":"ĠSet","2574":"urch","2576":"ts","2577":"af","2578":"Ġmight","2579":"istory","2580":"Str","2581":"Ġnever","2582":"Response","2583":"arse","2584":"ada","2585":"ĠHow","2586":"Ġ*)","2587":"Ġ;","2588":"Ġhard","2589":"Ad","2590":"Ġintern","2591":"used","2592":"(data","2593":"mod","2594":"annel","2595":"Ġnp","2596":"ugg","2598":"Ġcalled","2599":"body","2600":"Ġcho","2601":"(r","2602":"_set","2603":"ird","2604":"Ġ>=","2605":"Ġ};Ċ","2606":"Ġoptions","2607":"ĠGener","2608":"Ġheight","2609":"Point","2610":"You","2611":"ety","2612":"Click","2613":"Ġsmall","2614":"Ġide","2615":"Ġaccess","2616":"anguage","2617":"Ġprotected","2618":"Ġjob","2619":"ĠThere","2620":"Def","2621":"Ġaddress","2622":"Ġuint","2623":"Not","2624":"oo","2625":"aps","2627":"ained","2628":"atur","2629":"Ġsum","2630":"-w","2631":"ĠDate","2632":"Ġlittle","2633":"Ġfri","2635":"Ġport","2636":"eh","2637":"pring","2638":"_path","2639":"Ġstatus","2640":"aim","2641":"bool","2642":"Ġappe","2643":"Ġos","2644":".name","2645":"ension","2646":"_G","2647":"Ġupdate","2648":"Config","2649":"aff","2650":"ERR","2651":"Ġ<=","2652":"ately","2653":"#if","2654":"uction","2655":"ĠTe","2656":"Ġlink","2657":"ĠUser","2658":".find","2659":".org","2660":"me","2661":"Ġgiven","2662":"Out","2663":"#endif","2664":"Ġbetter","2665":"Page","2666":"Ġfeel","2667":"enn","2668":"ML","2669":"Ġalready","2670":"Ġincluding","2672":"ru","2673":"ically","2674":"prop","2675":"lean","2676":"outer","2677":"Ġalways","2678":"ording","2679":"If","2680":"orage","2681":"Ġparent","2682":"vis","2683":"ĉĉĉĉĉĉĉ","2684":"Ġgot","2685":"stand","2686":"Ġless","2687":"/s","2688":"ĠAss","2689":"apt","2690":"ired","2691":"ĠAdd","2692":"Ġaccount","2694":"Ġder","2695":"resent","2696":"Ġlot","2697":"Ġvalid","2698":"ĉd","2699":"Ġbit","2700":"ponents","2701":"Ġfollowing","2702":"_ex","2703":"SON","2704":"Ġsure","2705":"ocial","2706":"Ġprom","2708":"header","2710":"Ġboolean","2711":"Ġsearch","2712":"ken","2713":"Ġorig","2714":"Ġer","2715":"Ed","2716":"EM","2717":"aut","2718":"ling","2719":"ality","2720":"ById","2721":"bed","2722":"ĉcase","2723":"ether","2724":"posit","2725":"Ġinvest","2726":"ĠOR","2727":"Ġsays","2728":"mission","2729":"AME","2730":"Ġtemp","2731":"oad","2732":"Ġrest","2733":"info","2734":"Ġinterest","2735":"Arg","2736":"Ġperform","2737":"pons","2738":"ĠView","2739":"Ġver","2740":"lib","2741":"(const","2742":"Util","2744":"arge","2745":"Ġmult","2746":"Ġdie","2747":"Ġsite","2748":"../../","2749":"EL","2750":"Ġvalues","2751":"Ġ})Ċ","2752":"pen","2753":"No","2754":"icro","2755":"Ġbeh","2756":"Ġ'./","2757":"acy","2758":"rec","2759":"()->","2760":"ĉĠĠĠ","2761":"\"))","2762":"Content","2763":"_W","2765":"Ġwon","2766":"Ġvideo","2767":"adi","2768":"point","2769":"%%","2770":"Ġgl","2771":"erved","2773":"IF","2774":"uted","2776":"'m","2777":"Ġcert","2778":"Ġprof","2779":"Ġcell","2780":"ari","2781":"Ġplayer","2782":"ais","2783":"Ġcost","2784":"Ġhum","2785":"(R","2786":"Ġoffic","2787":"ks","2788":".text","2789":"atures","2790":"Ġtotal","2791":"Ġ*/ĊĊ","2792":"ope","2793":"Ġstat","2794":"UM","2795":"Ġload","2796":"ights","2797":"Ġclear","2798":"uro","2799":"Ġtechn","2800":"upport","2801":"IR","2802":"Ġrow","2803":"Ġseem","2804":"Ġq","2805":"Ġshort","2806":"ĠNot","2807":"ipp","2808":"Group","2809":"section","2810":"max","2811":"irl","2812":"Ġoverride","2813":"Ġcompany","2814":"Ġdone","2816":"Ġgre","2817":".Re","2818":"Ġbelie","2819":"rist","2820":"Ġhealth","2821":"ANT","2822":"()ĊĊ","2823":"ĠBe","2824":".value","2825":"ĠGr","2826":"ottom","2827":"Ġargs","2828":"PT","2829":"status","2830":"func","2831":"uments","2832":"-h","2833":"Number","2834":":čĊ","2835":"ĠLog","2836":"erver","2837":"Ġ),Ċ","2838":"ament","2839":"Ġobj","2840":"inc","2841":"Ġchildren","2842":"icy","2843":"IZ","2844":"ands","2845":"ably","2847":"Ġcur","2848":"erial","2849":"Ġdays","2850":"reated","2851":"rect","2852":"-l","2853":"irm","2854":"idden","2855":"omb","2856":"Ġinitial","2857":".js","2858":"Ġâ","2859":"Query","2860":"Ġonline","2861":"imal","2862":".con","2863":"au","2865":"control","2866":"irection","2867":"Ġinstance","2868":"ORT","2869":"ĠFr","2870":"where","2872":"Ġorgan","2873":"apter","2874":"Ġreason","2875":"options","2876":"ĠMar","2877":"(a","2878":"Ġwithin","2879":".âĢĿĊĊ","2882":"admin","2883":"ended","2884":"Ġdesign","2885":"ĠData","2886":"une","2887":"ĠFile","2888":"root","2889":"Ġcent","2890":"Ġarr","2891":"_add","2892":"len","2893":"page","2894":",'","2895":"_str","2896":"Ġbro","2897":"ability","2898":"outh","2899":"/c","2900":"pose","2901":"irtual","2902":"earch","2903":"_url","2904":"argin","2906":"Ġschool","2907":"ava","2908":"Ġconsider","2909":".label","2910":"ĠArray","2911":"web","2912":"opt","2914":"ulation","2915":"Ġfunc","2916":"PL","2917":"Ġ\"\\","2918":"ĠText","2919":"actory","2920":"(function","2921":"null","2922":"Ġeng","2923":"down","2924":"Ġinclude","2925":"ĠEn","2926":"ĠDr","2927":"Ġdb","2928":"!!","2929":"side","2930":"Ġinit","2931":"quired","2932":"ĠShe","2933":"Column","2934":"react","2935":"Ġann","2936":"Ġstop","2937":"Ġlater","2938":"ĠThat","2939":"ention","2940":"df","2941":"UG","2942":"ILE","2943":"Ġclient","2944":"raft","2945":"ffer","2948":"Ġlove","2949":"quote","2950":"oud","2951":"Ġjson","2952":"Ġable","2953":"Ġmen","2954":"AX","2955":"ĠCopyright","2956":"Ã¶","2957":"avig","2958":"req","2959":"Client","2960":"});Ċ","2961":".Com","2962":"erc","2963":"ilt","2964":"pecial","2965":"_com","2966":"room","2967":".Name","2968":"Ġgive","2969":"amb","2970":"ike","2971":"Ġcondition","2972":"client","2973":"ators","2974":":\"","2975":"Ġcopy","2976":"uture","2977":"iversity","2978":"ernal","2979":"{{","2980":"ĠCan","2981":"ounc","2982":"do","2983":"Ġocc","2984":"Ġappro","2985":"thers","2986":"ze","2987":"Ġeither","2988":"ĠFl","2989":"Ġimportant","2990":"Ġlead","2991":"attr","2992":"ART","2993":"Equal","2994":"Ġda","2995":"etch","2996":"entity","2997":"Ġfamily","2998":"adding","2999":"Ġoption","3000":"Ġexist","3001":"ica","3002":"ĠObject","3003":"'ve","3004":"vers","3005":"itional","3006":"output","3007":"ĠTrue","3008":"ĠOF","3009":"_time","3010":"Ġoffer","3012":"HER","3013":"egin","3014":"\"\"","3015":"Ġwater","3016":"Ġche","3017":"ĠMy","3018":"ored","3019":"Ġstep","3020":"ances","3021":"CK","3022":"AY","3024":"struction","3025":"(C","3026":"ouch","3027":"Stream","3028":"active","3029":"ama","3031":"product","3032":"(){Ċ","3033":"Ġgovernment","3034":"ĠID","3035":"ajor","3036":"And","3037":"Ġdisplay","3038":"Ð»","3039":"Ġtimes","3040":"Ġfour","3041":"Ġfar","3042":"Ġpresent","3044":"Ġ\\Ċ","3045":"uest","3046":"Ġbas","3047":"echo","3048":"child","3049":"ifier","3050":"Handler","3051":"Ġlib","3052":"Property","3053":"translation","3054":"Ġroom","3055":"Ġonce","3056":"Ġ[]","3057":"center","3058":"================================","3059":"Ġresults","3060":"Ġcontinue","3061":"Ġtalk","3062":"_get","3063":"Ġgrow","3065":"eb","3066":"ĠPublic","3067":"OP","3069":"ols","3070":"Ġ**","3071":"\");ĊĊ","3072":"Ġmass","3073":"ured","3074":".class","3075":"omic","3076":"Ġmean","3077":"ips","3078":"Ġaut","3080":"Ġuntil","3081":"Ġmarket","3082":"Ġarea","3083":"uit","3084":"Ġlength","3085":"ĠWith","3087":"event","3089":"ĠSp","3090":"IV","3091":"Ġmus","3092":"iff","3093":"Ġkind","3094":"author","3095":"ounds","3096":"mb","3097":"_key","3098":"width","3100":"Ġlight","3101":"uk","3102":"Row","3103":"ohn","3104":"alf","3106":"apper","3107":"ollections","3108":"Ġside","3109":"_info","3110":"Ġexample","3111":"imary","3112":"Ġwr","3113":"Ġcamp","3114":"cribe","3115":"\"/","3116":"Ġmiss","3117":"way","3118":"Ġbased","3119":"Ġplan","3120":"Vis","3121":"omain","3122":"unk","3123":"Ġaway","3124":"UP","3125":"<T","3126":"OS","3127":"iod","3128":"ĠMon","3129":"âĢĻre","3130":"Ġlik","3131":"Ã§","3132":"ively","3133":".v","3134":"imer","3135":"izer","3136":"Sub","3137":"Ġbutton","3138":"ĠUp","3139":"Ġexperience","3140":"CL","3141":"Ġrender","3142":"_value","3143":"Ġnear","3144":"URL","3145":"alt","3146":"Ġcountry","3147":"ibility","3148":"(),Ċ","3149":"ead","3150":"Ġauthor","3151":"Ġspecific","3152":"base","3153":"(name","3154":"ones","3155":"ĠDo","3156":"Ġalong","3157":"year","3158":"Ġexpress","3159":".'","3160":"env","3161":"Ġbegin","3162":"Ġsoftware","3163":"Ġimp","3164":"Ġwin","3165":"Ã³n","3166":"Ġthing","3167":"Trans","3168":"ĠTHE","3169":"Ġ<?","3170":"Ġwhy","3171":"Ġdoesn","3172":"ij","3173":"ging","3174":"ĉg","3175":"Ġsingle","3176":"offset","3177":"arning","3178":"ograph","3179":"ley","3180":"_count","3182":"create","3183":"/m","3184":"ĠReg","3185":"unch","3186":"=$","3187":"isk","3188":"Ġrights","3189":"(M","3190":"Ġ\"\"\"Ċ","3191":"aper","3192":".model","3193":"Ġpo","3194":"empty","3195":"artment","3196":"Ġant","3197":"ĠWhen","3198":"Ġwomen","3199":"ĠEd","3200":"Ġseason","3201":"Ġdest","3202":"Ã£","3203":"(h","3204":"Ġpossible","3205":"Ġsever","3207":"Ġdidn","3208":"Ġsent","3209":"Ġenc","3210":"Ġcommand","3212":"_x","3213":"Ġrecent","3214":"olution","3215":"vector","3216":"ĠBy","3217":"ĠMay","3218":"ĠAct","3219":"»¿","3220":"Ġmoney","3221":"INT","3222":"bsite","3223":"ĉp","3224":".čĊ","3225":"ï»¿","3226":"sl","3227":"attern","3228":"ĠClass","3229":"Ġtold","3230":"udio","3231":"current","3232":"Ġequ","3233":"Ġauto","3234":"ĠState","3235":"da","3236":"msg","3237":"));ĊĊ","3238":"Ġworking","3239":"Ġquery","3240":"ĠBr","3241":"Ġwindow","3242":"auth","3243":"only","3244":"ĉt","3245":"Ġleast","3246":"agn","3247":"Ġexpl","3248":"itter","3249":"aring","3250":"Ġcolumn","3251":"ĠGeneral","3252":"\":\"","3253":"eral","3254":"rior","3255":"Ġrecord","3256":"IB","3257":"EX","3258":"Ġdat","3259":"Ġmaking","3260":"ued","3261":"ĠCar","3262":"emp","3263":"\".","3264":"ĠMed","3265":"Ġclose","3266":"Ġpercent","3267":"Ġpast","3268":"(g","3269":":(","3270":"Ġwrite","3271":"Ġmove","3272":"Ġpat","3273":"Control","3274":".To","3275":"Ġvi","3276":"*/Ċ","3277":"inate","3278":"'ll","3279":"aged","3280":"Null","3281":"Ġspecial","3282":"IZE","3283":"Ġcity","3284":"/*Ċ","3285":"ĠEng","3286":"ixed","3287":"inary","3288":"py","3289":"Ġeff","3290":"ario","3291":"Ġtell","3292":"avor","3293":"Ġselect","3294":"level","3295":"imum","3296":"oper","3297":"Builder","3298":"IP","3300":"esc","3301":"Ġfont","3302":"\";ĊĊ","3303":"ĠAm","3304":"ished","3305":"ills","3306":"Inter","3307":"OW","3308":"Ġcourse","3309":"Ġlate","3310":"iddle","3311":"Ġamount","3312":"Ġasync","3313":"ino","3314":"cul","3316":"andle","3317":"_user","3318":"Ġben","3319":"ĠCal","3321":"ĠRep","3322":"Ġenough","3324":".user","3325":"(j","3326":"Sc","3327":"Width","3328":"now","3330":"Ġlooking","3331":"Ġhold","3333":"ITY","3334":"vo","3335":"ison","3336":".Data","3337":"yc","3338":"Ġpot","3339":"ĠTrump","3341":"ides","3342":"rt","3343":"Ġproperty","3344":"ĠĠĠĠĠĠĠĠĠĠĠĠĠĠĠĠĠĠĠĠĠĠĠĠĠĠĠĠĠĠĠĠĠĠĠĠĠĠĠĠĠĠĠ","3345":"amework","3346":"go","3347":"Ġlow","3348":"Ġpara","3349":"Ġprice","3350":"ury","3351":"Ġtoday","3352":"roy","3353":"Ġ'/","3354":"Ġpolit","3355":"Ġ''","3356":"ymb","3357":"Ph","3359":"Ġattack","3360":"ĠSte","3361":"ROM","3362":"ana","3363":"Ġmeans","3364":"Ġstory","3365":"ids","3366":"aken","3367":"Ġmeet","3368":"Ġmom","3369":"ĠâĢĺ","3371":"Ġden","3372":"obile","3373":"change","3374":"ĠĠĠĠĠĠĠĠĠĠĠĠĊ","3375":"ici","3376":"na","3377":"ĠForm","3378":"Ġsort","3379":"Select","3380":"pare","3381":"Ġthought","3382":"_con","3383":"Ġtask","3385":"ĠDE","3386":"ĠMin","3387":"Ġopt","3388":"ĉbreak","3389":"umer","3390":"KE","3391":"then","3392":"Ġdet","3393":"ĠTest","3394":"ports","3395":"Ġreview","3396":"('/","3397":"move","3398":"Ġswitch","3399":"ERT","3400":"patch","3401":"annot","3403":"Ġabove","3404":"itive","3405":"Ġquestion","3406":"ĠQu","3407":"ãĢĤĊĊ","3408":"gle","3409":"Ġword","3410":"Ġprovide","3411":"ĠReturn","3412":"Ġresearch","3413":"Ã£o","3414":"ustr","3415":"Ġpublish","3417":"}}","3418":"ĠCON","3419":"-in","3420":"allback","3421":"Ġcover","3422":"\\\\","3423":"color","3424":"ĠIS","3425":"Ġwhether","3426":"imate","3427":"isc","3428":"Bar","3429":"Ġdiv","3430":"Be","3431":"ourn","3432":"Ġhaving","3433":"lem","3434":"player","3435":"abs","3437":"ney","3438":"Ġexc","3439":"gether","3440":"plied","3441":"ao","3442":"[$","3443":"Ġ++","3444":"ipe","3445":"show","3446":"/d","3447":"[:","3448":"agement","3449":"lev","3450":"_ID","3451":"rary","3452":"ades","3453":"_se","3454":"ause","3455":"Ġemploy","3457":"Ġfre","3458":"Ġ'@","3459":"Ġcomplet","3460":"Ġlarge","3461":"ral","3463":"Ġfac","3465":"Ġcreated","3466":"uper","3467":".state","3468":"Ġhost","3470":"/b","3471":"(!","3472":"while","3473":"ias","3474":"BUG","3475":"Ġ);ĊĊ","3476":"Ġrole","3477":"Reg","3478":"ĠColor","3479":"Start","3481":"top","3482":"Ġweb","3483":"Ġdev","3484":"Ġdeal","3485":"++)Ċ","3486":"Integer","3487":"position","3488":".on","3489":"Ġ(\"","3491":"Ġproblem","3492":"sv","3493":"Ġpress","3494":"ABLE","3495":"ATION","3496":"ĠSee","3497":"anch","3498":"Ġthough","3499":"leep","3500":"Ġ<!--","3501":"Ġpoints","3502":"ĠĠĠĠĠĠĠĠĠĠĠĠĠĠĠĠĠĠĠĠĠĠĠĠĠ","3503":".J","3504":"Ġ::","3505":"ptr","3506":"DB","3508":".png","3509":"node","3510":"soft","3511":"pond","3512":"Ġever","3513":"----------------------------------------------------------------","3514":"Menu","3515":"('#","3516":"Ġservices","3517":"pg","3518":"})Ċ","3519":"params","3520":"Ġactually","3521":"Ġ\"/","3522":"Empty","3523":"Method","3524":"Ġident","3525":"unic","3526":"Ġmillion","3527":"Ġaff","3528":"style","3529":"Ġconc","3530":"ios","3531":"ignment","3532":"ULT","3533":"Pr","3535":"Ġunderstand","3536":"uary","3537":"Ġhappen","3538":"Ġserver","3539":"ĠCo","3540":"SC","3541":"Ġles","3542":"Ġfiles","3543":"Grid","3545":"Ġoften","3546":"Ġinfo","3547":"_tr","3548":"src","3549":"ony","3550":"Ġspace","3551":"umb","3552":"Ġpassword","3553":"Ġstore","3554":",ĊĊ","3555":"ĠWhat","3556":"ged","3557":"ĠFalse","3558":"Us","3560":"_index","3561":"Ġformat","3562":"most","3563":"sm","3564":"New","3565":"Ġdetails","3566":"Ġprob","3567":"ĠAND","3568":"()čĊ","3569":"ilar","3570":"Ġ${","3571":"rypt","3574":"ĠFree","3575":"_of","3577":"dated","3578":"Ġ>>","3579":"Ġface","3580":"CTION","3581":"Ġsave","3582":"Ġtyp","3583":"dev","3584":"(\"#","3585":"AGE","3586":"container","3587":"edit","3589":"Ġitems","3590":"Ġsocial","3591":"ien","3593":").ĊĊ","3594":"Ġmar","3595":"Ġredu","3596":"ĠRE","3597":".put","3598":"Ġmajor","3599":"Cell","3600":"next","3601":"Ġexpected","3602":"Ġyet","3603":"Ġindiv","3605":"atis","3606":"amed","3607":"Ġfood","3608":"Source","3609":"(string","3610":"Ġ+Ċ","3611":"ites","3612":"dr","3613":"Ġmembers","3614":"Ġcomb","3615":"items","3616":"ĠPer","3617":"TH","3618":"=True","3619":"Ġbar","3620":"_SE","3621":"comm","3622":"(w","3623":")ĊĊĊ","3624":"Ġsend","3625":"Ġinc","3626":"unsigned","3627":"FA","3628":"Ġparams","3629":"apping","3630":"ros","3631":"ugin","3632":"fa","3633":"Ġconnection","3635":"Ġbecome","3636":"Mode","3637":"Ġev","3638":"Ġdiff","3639":"ĠUnited","3640":"Height","3641":"fully","3642":"images","3643":"Ġmakes","3644":"Ġglobal","3645":"Ġcontact","3646":"':Ċ","3647":"Ġabs","3648":"Ð°Ð","3649":"float","3650":"Ġexcept","3651":"ĠPol","3652":"Child","3653":"typ","3654":"Ġcertain","3655":"iÃ³n","3656":"OUT","3657":"Ġimpro","3658":"iles","3659":"Ġ-->Ċ","3660":"ĠPart","3661":"values","3662":"oss","3663":"/**","3664":"ilit","3665":"ĠEvent","3666":"curity","3667":"ster","3668":"Ġcharacter","3669":"Ġnews","3670":"Ġ\",","3671":"Ġdevice","3672":"cel","3673":"login","3674":"heet","3675":"Default","3676":"@\"","3677":"ĉĠ","3678":"click","3679":"(value","3680":"ĠAb","3681":"Ġprevious","3682":"ERROR","3683":"ocal","3684":"Ġmaterial","3685":"Ġbelow","3686":"ĠChrist","3687":"Ġmedia","3688":"cover","3689":"ĠUI","3690":"Ġfail","3691":"Ġblack","3692":"Ġcomponent","3693":"ĠAmerican","3694":"Ġadded","3695":"Ġbuy","3696":"stit","3697":"Ġcame","3698":"Ġdelete","3699":"property","3700":"oding","3701":"Ġcard","3702":"rops","3703":"Ġhttps","3704":"Ġroot","3705":"Ġhandle","3706":"CC","3707":"Back","3708":"emplate","3709":"Ġgetting","3710":"_by","3711":"mail","3712":"_sh","3714":"ĠDec","3715":"(true","3716":"Ġcomput","3717":"Ġclaim","3718":"'=>","3719":"ĠSub","3720":"Ġair","3721":"ops","3722":"nav","3723":"ements","3724":"(id","3725":"Ġenter","3726":"anged","3727":"End","3728":"Ġlocation","3729":"Ġnight","3730":"Ġdoing","3731":"ĠRed","3732":"lin","3733":"}ĊĊĊ","3735":"Ġpick","3736":"Ġwatch","3738":"Ġhuman","3739":"Ġdam","3740":"pend","3741":"dir","3742":"Ġtax","3743":"Ġgirl","3744":"reet","3745":"Ġbox","3746":"Ġstrong","3747":"(v","3748":"rel","3749":"Ġinterface","3750":"Ġmsg","3751":"fect","3752":"_at","3753":"Ġhouse","3754":"Ġtrack","3756":"je","3757":"ĠJohn","3758":"istr","3759":"(S","3760":"ube","3761":"Ġce","3762":"itted","3763":"VER","3764":"*)","3765":"parent","3766":"Ġapplication","3767":"any","3769":"Ġpack","3770":"\\u","3771":"Ġpract","3772":"Ġsection","3773":"ctx","3774":"Ġunsigned","3775":".Point","3776":"ĠOne","3777":"Ä±","3778":"iple","3779":"aid","3780":"Ñĥ","3781":"Vector","3782":"byte","3783":"Ġwait","3784":"ĠÃł","3785":"Ã¥","3786":"Ġtogether","3787":"Ġthrows","3788":"FO","3789":"'))","3790":"host","3791":"ising","3792":".view","3793":"Ġterms","3794":"framework","3795":"-r","3796":"Ġapply","3797":"Ġsession","3798":"Options","3799":"uggest","3800":"Ġothers","3802":"Ġfund","3803":"Init","3804":"__(","3806":"GET","3807":"Ġseveral","3808":"ii","3809":"[j","3810":"IO","3811":"Ġtemplate","3812":"Position","3813":"Ġecon","3814":"achine","3815":"Ġil","3817":"main","3818":"elt","3819":"iment","3820":"Rec","3821":"mm","3822":"ĠUniversity","3824":"ĠĠĠĠĠĠĠĠĠĠĠĠĠĠĠĠĠĠĠĠ","3825":"GL","3826":"icture","3827":"ithub","3828":"cer","3829":"cast","3830":"From","3831":"ales","3832":"Ġsubject","3833":"password","3834":"ny","3835":"Ġesc","3836":".write","3837":"ï¼Į","3838":"What","3839":".H","3840":"Ġhistory","3841":"ĠFe","3842":"Ġindividual","3843":"unit","3844":"Ġ-->","3845":"Ġdu","3846":"IST","3847":"Ġusers","3848":"fs","3849":"false","3850":"unt","3851":"Title","3852":"Ġmot","3853":"Ġfuture","3854":"ached","3855":"Ġstarted","3856":"Ġmode","3857":"Ġ'<","3858":"_array","3859":"Ġax","3861":"ires","3862":"There","3863":"ught","3865":"posed","3866":"icult","3867":"Ġtook","3868":"Ġgames","3869":"Ġ}}","3870":"Ġ?>Ċ","3871":"Ġproducts","3872":"Is","3873":"Ġbad","3874":"ĠDes","3875":".path","3876":"'ĊĊ","3877":"ĠPost","3878":"avel","3879":"(:","3880":"Ġneeds","3881":"Ġknown","3882":"Fl","3883":"Ġexec","3884":"Ġseen","3885":"ume","3886":"Ġborder","3887":"Ġlive","3888":"temp","3889":"Per","3890":"Ġvariable","3891":"iet","3892":"ĠDef","3893":"Ġge","3894":"eme","3895":"_back","3896":"first","3897":"Ġprovided","3899":"Ġfilename","3900":"Ġhope","3901":"uly","3902":"auto","3903":"find","3904":"_string","3906":"itude","3908":"Ġyoung","3909":".txt","3910":"Ġwebsite","3911":"ĠProp","3912":"Ġey","3914":"ional","3915":"ARR","3916":"ictionary","3917":"urther","3918":".</","3919":"ALL","3920":"Ġstudy","3921":"ili","3922":"Ġnetwork","3923":"yl","3924":"istance","3925":"OK","3926":"NU","3927":"rest","3928":"ĠST","3929":"icrosoft","3930":"Ġlimit","3931":"Ġcut","3932":"():Ċ","3933":"Ġcou","3934":"ogn","3935":"Ġsizeof","3936":"ival","3937":"Ġwent","3938":".z","3939":"Link","3940":"Ġfire","3941":"Ġacross","3942":"Ġcommunity","3943":"region","3944":"NE","3945":"Ref","3946":"Ġofficial","3947":"Ġvisit","3948":"olve","3949":"Ġreceived","3950":"Ġtoken","3951":"Ġmonths","3952":"Ġanim","3953":"Ġparticular","3954":"styles","3955":"ico","3956":"Ġess","3958":"ĠÃ©","3959":"ball","3960":"Ġlearn","3961":"inding","3962":"Var","3963":"Ġdecl","3964":"(err","3965":"LECT","3966":"One","3967":"pha","3968":"Ġ~","3969":"fort","3970":"asure","3971":"Ġmind","3972":"ĠEnd","3973":"Check","3974":"Ġquick","3975":"\"),","3976":"AND","3977":"utions","3978":"Base","3979":"________","3980":"Ġcomment","3981":"INE","3982":"âĢĻve","3983":"But","3984":"ĠEl","3985":"ĠUs","3986":"Ġadmin","3987":"mark","3988":"ĠName","3989":"`Ċ","3990":"ĠType","3991":"amic","3992":"pc","3993":"loor","3994":"FT","3996":"cket","3997":")->","3998":"tx","3999":"Ġpur","4000":"uel","4001":"ymbol","4002":"uation","4003":"anger","4004":"Ġbackground","4005":"ecess","4006":"efined","4007":"........","4008":"Ġdescription","4009":"Ġrepresent","4010":"\"));Ċ","4012":"rowser","4013":"Ġseries","4014":"wards","4016":"aise","4017":"Ġhot","4018":"acity","4019":"ries","4020":"actions","4021":"Create","4022":"adio","4024":"Ġoriginal","4025":"ensive","4026":"font","4027":"stream","4030":"server","4031":"Ġbill","4032":"ACK","4034":"Ġframe","4035":"Ġ=Ċ","4036":"Edit","4037":"adius","4038":"Ġdraw","4039":"anks","4040":"Ġdeter","4041":"Ġcomes","4042":"_int","4043":"Ġforeach","4044":"angle","4045":"Ġelect","4046":"pected","4048":"istration","4049":"False","4050":"ĠGame","4051":"Ġfilter","4052":"Activity","4053":"Ġlarg","4054":"inition","4055":"Ġ\"<","4056":"ised","4057":"Ġremove","4058":"ĠTrans","4059":"met","4060":"see","4061":"Format","4062":"Command","4063":"ĠEX","4064":"None","4065":"Ġfront","4066":"ASE","4067":"ĠRec","4068":"oundation","4069":"Ġvo","4070":"=\\\"","4071":"(*","4072":"Change","4073":".Write","4074":"group","4075":"ients","4076":"uy","4078":"Ġdig","4079":"hr","4080":"(-","4081":"Ġgen","4082":"number","4083":"vec","4084":"urope","4085":"entry","4087":"Ġste","4088":"Valid","4089":"'],","4090":"_param","4091":"Ġselected","4092":"Ġaccording","4093":"ĠDis","4094":"Ġutil","4095":"Buffer","4096":"_error","4097":"Ġassoci","4099":"Ġwor","4100":"Ġprintf","4101":"rag","4102":"Âł","4103":"DD","4104":"ĠVal","4105":"Ġactiv","4106":"Eng","4107":"etime","4108":"Ġvirtual","4109":"aign","4110":"aur","4111":"ĠPres","4112":"ĠException","4113":"Ġanything","4114":"ĠOff","4115":"Ġhours","4116":"Ġwar","4117":"Args","4118":"aging","4119":"Ġmodels","4120":"ĠTime","4121":"Ob","4122":"ams","4123":"joy","4124":"Ġearly","4125":".read","4126":"Ġcenter","4127":"ĠInitial","4128":"Ġlanguage","4129":"length","4130":"xy","4131":"Ġsn","4132":"Ġinf","4133":"Post","4134":"Ġago","4135":"Ġeasy","4136":"_code","4137":"ĠANY","4138":"_ch","4139":"Ġdownload","4140":"(T","4141":"aved","4142":"âĢĵ","4143":"Ġstudents","4144":"Ġfig","4145":"light","4146":"xx","4147":"Ġbuffer","4148":"ĠDep","4149":"ĠMath","4151":"Ġvari","4152":"Ġdue","4153":"Factory","4154":"Ġpor","4155":"Ġep","4156":"otype","4157":"Ġcannot","4158":"Ġwhite","4159":"<int","4160":"tern","4161":"Ġregister","4162":"Ġpred","4163":"clus","4164":"_date","4165":"Ġ/**","4166":"Ġauth","4167":"Ġ[]Ċ","4168":"Ġperiod","4169":"nown","4171":"Ġscreen","4172":"'d","4173":"Types","4174":"Ġtmp","4176":"ural","4177":"Ġbenef","4178":"_y","4179":"Ġnet","4180":"ĠStates","4181":"']['","4182":"ĠNe","4183":"ĠNOT","4184":"Ġneg","4185":"Ġcommon","4186":"scope","4187":"Ġcred","4188":"ges","4190":"Ġsuggest","4191":"oom","4192":".ĊĊĊ","4193":"Ġaccept","4194":"Ġrandom","4195":"erm","4196":"ĠVector","4197":"with","4198":"TER","4199":"(str","4200":"Ġrespons","4201":"Ġhit","4202":".Set","4203":"grid","4204":"ria","4205":"Ġclick","4206":"undle","4207":"Case","4208":"insert","4209":"Utils","4210":"Ġ\"\"\"","4211":"Ġimplement","4212":"atal","4214":"template","4215":"ocr","4216":"returns","4217":"Ġplayers","4218":"users","4219":"edef","4220":"ĠThese","4221":"Ġamong","4222":"Ġdeb","4223":"ha","4225":"Ġcirc","4226":"Ġanswer","4227":"Ġwalk","4228":"Ġtreat","4229":"ĠGe","4230":"ĠCreate","4231":"Ġage","4232":"Ġreq","4233":"OST","4234":"angular","4235":"Ñı","4236":"Ġfive","4237":"Ġdistributed","4238":"Ġfriend","4240":"Ġclean","4241":"ows","4243":"dis","4244":"Ġwords","4245":".io","4246":"zy","4247":"Ġheader","4248":"ĠCheck","4249":"âĢĻm","4250":"just","4251":"holder","4252":"=\"<?","4254":"ĠCol","4256":"entic","4257":"{ĊĊ","4258":"Ġtre","4259":"last","4260":"la","4261":"ĠYork","4262":"Lo","4263":"Ġdiscuss","4264":"ĠGod","4265":"Ġissue","4266":"rew","4267":"Window","4268":"Ġland","4269":"Ġstream","4270":"ĠPar","4271":"Ġquality","4272":"Par","4273":"_num","4274":"Ġsal","4275":"elves","4276":"ORD","4277":"(user","4278":"Ġworks","4279":"Ġhalf","4280":"enses","4281":"vas","4282":"Ġpolice","4283":"(\"/","4284":"ua","4285":"Ġsimple","4286":"Address","4287":"Ġempty","4288":"esh","4289":"Update","4290":"ĠCreated","4291":"('.","4292":").Ċ","4293":"ĠĠĠĠĠĠĠĠĠĠĠĠĠĠĠĠĠĠ","4295":"ĠFROM","4296":"Ġcook","4297":"Ġeverything","4298":"ilities","4299":".status","4300":"Ġrelations","4301":"extern","4302":"Ġnothing","4303":"Ġrunning","4305":"RI","4306":"_a","4308":"por","4309":".sub","4310":"require","4311":"ĠCity","4312":"ĠWest","4313":"Ġmor","4314":"store","4316":"oder","4317":"Ġna","4318":"Ġ[[","4319":"Ġ('","4320":"ĠDon","4321":"ERS","4322":"/p","4323":".json","4324":"abor","4325":"Ġsomeone","4326":"_text","4329":"ĠSome","4330":"ato","4331":"double","4332":"Ġshare","4334":"_dir","4335":"Ġur","4336":"Stack","4337":"ĠWorld","4338":".X","4340":"How","4342":"icles","4343":"Ġentry","4344":"Ġchanges","4345":"Ġpersonal","4346":"(A","4347":"Ġoffset","4348":"_ptr","4349":"Ġpie","4350":"ĠJan","4351":"-group","4352":"module","4353":"Items","4354":"ĠHowever","4355":"verage","4357":"Ġevents","4358":".min","4359":"Ġinvol","4360":"za","4361":"Ġwhole","4362":"Ġneeded","4363":"Ġlikely","4364":"rief","4365":"ORM","4366":"version","4367":"Ġfight","4368":"Ġein","4369":"Frame","4370":"gen","4371":"ĠOut","4373":"Length","4374":"illed","4375":"quence","4377":"ĠSoftware","4378":"Ġwriting","4379":"Ġrate","4381":"Panel","4382":"inner","4383":"Ġ[\"","4384":"Ġtw","4385":"cd","4386":"Ġ;Ċ","4387":"_state","4388":"ĠSm","4389":"ĠMark","4390":"))ĊĊ","4391":"prot","4392":"ĠMr","4393":"method","4395":"Icon","4396":"Ġcorrect","4397":"(object","4398":"ĠMore","4399":"Ġfall","4400":"Ġvol","4401":"Ġdevelopment","4402":"ently","4403":"Ġsi","4404":"medi","4405":"ving","4406":"PP","4407":"aker","4408":"Ġindu","4409":"Ġelif","4410":"Ġpret","4411":"Ġbelieve","4412":"ns","4413":"omet","4414":"ĠIntern","4415":"Rect","4416":"So","4417":".error","4418":"Read","4419":"Ġfeatures","4420":"Ġminutes","4421":"---","4422":"asing","4423":"cret","4426":"Ġcollection","4427":"'.","4428":"Ġsimilar","4429":"Ġtaken","4430":"(\"%","4431":"Order","4432":"']Ċ","4434":"ĠTH","4435":"aced","4436":"Ġisn","4437":"/j","4438":"Ġson","4440":"ĠInteger","4441":"Ġnecess","4442":"reen","4443":"Ġum","4444":"Ġ\\<","4445":"Ġmoment","4446":"Ġbring","4448":"ysis","4449":"Level","4450":"verse","4452":"_test","4453":"Ġentire","4454":"Down","4455":"Ġ}ĊĊĊ","4456":"(result","4457":"ĠRead","4458":"Ã¨","4459":"Mod","4460":"Ġtrying","4461":"\"),Ċ","4462":"Ġmember","4463":"ĠCor","4465":"-control","4466":"untime","4467":"ĠSim","4469":"plot","4470":"_on","4471":"Ġphys","4472":"}/","4473":"Ġnamespace","4474":"ĉčĊ","4475":"acc","4476":"Player","4477":"ARE","4478":"Ġfoot","4479":"Ġboard","4480":"part","4481":"Ġsus","4482":"wise","4483":"ĠMc","4484":"Ġpush","4486":"Ġplease","4487":"ried","4488":"weet","4489":"bit","4490":"ided","4491":"VE","4492":"ĠSw","4493":"UB","4494":"Ġtypes","4496":"Ġclos","4498":"When","4499":"Ġedit","4500":"igger","4501":"Ġenerg","4502":"Container","4503":"Ġphot","4504":"ĠCount","4505":"ĠEurope","4506":".Is","4507":"ĠRuss","4508":"peed","4509":"ĠStr","4510":"Ġpy","4511":"Ġcult","4512":"Ġdefined","4515":".Location","4516":"Ġthread","4517":"ille","4518":"Ġinstead","4519":"strong","4520":"ĠSec","4521":"URE","4522":"Ġidea","4523":".se","4524":"emy","4525":"selected","4526":"Connection","4527":"acing","4528":"thread","4529":".next","4530":"Ġcoll","4531":"Ġfilm","4532":"istic","4533":"Ġcompet","4534":"Ġconn","4535":"though","4536":"Ġcompan","4537":"ocket","4538":"Ġteach","4539":"=(","4540":"Ġphone","4541":"Ġactive","4542":"delete","4543":"tries","4544":"Ġmo","4545":"Ġdeath","4546":"});ĊĊ","4547":"ocol","4549":"Ġarticle","4550":"rodu","4551":"andid","4552":"Ñĭ","4553":"ĠCr","4554":"ka","4555":"():","4556":"lood","4557":"ĉĉĉĊ","4558":"Ġalmost","4559":"Ġsell","4560":"ervlet","4561":"rip","4563":"Ġapplic","4564":"Ġconnect","4565":"Ġfeature","4566":"Ġvia","4567":"'),","4568":"Ġlim","4569":"ĠĠĠĠĠĠĠĠĠĠĠĠĠĠĠĠĠĠĠĠĠĠĠĠĠĠĠĠĠĠĠĠĠĠĠĠĠĠĠĠĠĠĠĠĠĠĠ","4570":"ĠGu","4571":"Engine","4572":"Ġens","4573":"Ġenvironment","4574":"block","4575":"HERE","4576":"NULL","4577":"gy","4578":"tag","4579":")).","4580":"exp","4581":"Ġcompl","4582":"Ġinstall","4583":"Ġcomplete","4585":"atural","4586":"Ġgeneral","4587":"thon","4588":"Ġasked","4589":"ores","4590":"(res","4591":"Ġreserved","4592":"SP","4593":"ĠâĢ¦","4594":"ÅĤ","4595":"Ġsignific","4596":"Off","4597":"ĠĠĠĠĠĠĠĠĠĠĠĠĠĠĠĠĠĠĠĠĠĠĠĠĠĠĠĠĠ","4598":"ĠAg","4599":"ĠJust","4600":"ĠError","4601":"Ġinfl","4602":"adata","4603":"Ġicon","4604":"asks","4605":"''","4607":"?.","4608":"account","4609":"Ġ(*","4610":"')ĊĊ","4611":"rap","4612":"_var","4613":"ĠFOR","4614":"Ġparty","4615":"ĠYour","4616":"cat","4617":"stry","4618":".new","4619":"boot","4620":"ĠNov","4621":"Ġvector","4622":"Ġnormal","4623":"Ġfurther","4624":"Repository","4625":"Ġdatabase","4626":"attle","4627":"Ġmusic","4628":"Ġspeed","4629":"Ġdoc","4630":"process","4631":"IGHT","4633":"Ġtaking","4634":"Ġviol","4635":"ceed","4636":"ĠAfter","4637":"Ġforward","4638":"Ġcrit","4640":"rot","4641":"Ġfailed","4643":"Ġconcern","4644":"oe","4645":"ba","4646":"Ġsender","4647":"Ġterm","4648":"has","4649":"=\"#","4650":"Ġpotential","4651":"Num","4652":"Ġpublished","4653":".close","4654":"ĠImage","4655":"straint","4656":"UD","4657":"ĠOb","4658":"Ġprobably","4659":"lim","4660":"\":Ċ","4661":"olume","4662":"Ġconsum","4663":"ague","4664":"ensions","4666":"-year","4668":"-sm","4669":"Ġenjoy","4670":"orig","4671":"ering","4672":"cp","4673":"leased","4675":"Ġreturns","4676":"pat","4677":"BO","4678":"ĠHouse","4680":"Ġweight","4681":"ighb","4682":"Ġconditions","4683":"Ġexception","4684":"description","4685":"Ġtrad","4686":"-to","4687":"Ġ{}","4688":"Ġmodule","4689":"END","4690":".ap","4692":"Ġconstructor","4693":"aves","4694":"Ġfavor","4695":"ĠNow","4697":"ĠMain","4698":"_k","4699":"eries","4700":"âĢĻll","4701":"transform","4702":"imestamp","4703":"Pre","4704":"Ġmer","4705":".res","4706":"stant","4707":"Location","4708":"_NAME","4709":"Ġloss","4710":"ĠĊĊ","4711":"net","4712":"Ġengine","4713":"Block","4714":"Ġissues","4715":"Ġparse","4716":"ĠBar","4717":"Ġstay","4718":"ĠJSON","4719":"Ġdom","4720":"airs","4721":"wner","4722":"Ġlower","4724":"ĠDem","4726":"Ġps","4727":"Ġperfect","4729":"Ġeduc","4730":"ls","4731":"emory","4733":"uge","4734":"Ġexact","4735":".key","4736":"alled","4737":"ech","4738":"ief","4739":"\\/","4740":"oke","4741":"Ġformer","4742":"alloc","4743":"Ġsix","4744":"ida","4745":"Ġmargin","4746":"Ġheart","4747":"ald","4748":"pack","4751":"Ġrather","4752":"Ġbuilding","4753":"erman","4754":"lice","4755":"Ġquestions","4756":"izes","4757":"lege","4759":"Ġje","4760":"Ġcas","4762":"utf","4763":"Ġsecurity","4764":"Ġhowever","4765":"weight","4766":"Ġinside","4767":"Ġpresident","4768":"Char","4769":"ĠWITH","4770":".map","4771":"Ġgraph","4772":"Ġtag","4773":"_status","4774":"Ġattempt","4775":"opp","4776":"uses","4777":"ĉconst","4778":"Ġround","4779":",$","4780":"Ġfriends","4781":"Email","4782":"?>","4783":"Resource","4784":"KEY","4785":"osp","4787":"ĠNorth","4788":"ables","4789":"istrib","4790":"_class","4791":"ello","4792":"That","4793":"Ðº","4794":"pecially","4795":"ĠPresident","4796":"Ġcampaign","4797":"Ġalt","4798":"area","4799":"Ġchall","4801":".Con","4802":"Ġenergy","4803":"like","4804":".string","4805":"ington","4806":")*","4807":"yy","4808":"Ġprofession","4809":"irth","4812":"Ġhor","4813":"iers","4814":"can","4815":"Ġbehind","4816":"Product","4817":"fg","4818":"ĠSk","4819":".jpg","4820":"?:","4821":"];ĊĊ","4822":"Ġcallback","4824":"ÑĮ","4825":"long","4826":"MS","4827":"ATH","4828":"Ġraise","4829":"Ġwanted","4830":"rown","4831":"utor","4832":"lt","4833":"]=","4834":"eline","4835":"MA","4836":"Ġsepar","4837":"cs","4838":"semb","4839":"Dis","4841":"ĠWill","4842":"Ġpolicy","4843":"Ġthird","4844":"phone","4845":"Ġbed","4846":"/g","4847":".__","4848":"ĠInc","4849":"izing","4850":".remove","4851":"instance","4852":".type","4853":"Ġserv","4854":"Each","4855":"Ġhar","4856":"ĠMessage","4857":"(key","4858":"SELECT","4859":"Pos","4861":"Ġrecomm","4862":"Ġtraining","4863":"ĠEnt","4864":"ĠChar","4865":"icht","4866":"(file","4867":"Ġprior","4868":"Game","4869":"Ġexit","4871":".core","4872":"PC","4873":"nes","4874":"anced","4875":"(request","4876":"Password","4877":"}>Ċ","4878":"Ġmag","4879":"Ġrelease","4880":"Ġshall","4882":"ĠSouth","4883":"ando","4884":":'","4886":"sk","4887":"anner","4888":"isset","4889":"Ġoutside","4890":"ledge","4891":"Ġå","4892":"ĠRob","4893":"Ġimm","4894":"!Ċ","4895":"ĠWeb","4896":"Des","4897":"BC","4898":"ancial","4899":"Route","4900":"Dec","4901":"ferences","4903":"ĠModel","4904":"ctor","4905":"gn","4906":"_start","4907":"_un","4908":".*","4909":"ises","4910":"Ġground","4911":"Ġunique","4912":"Ġbeaut","4913":"{\"","4914":"Ġpour","4915":"ĠOct","4916":"Ġtree","4917":"sets","4918":"_res","4920":"_reg","4921":"(\"\\","4922":"Ġbyte","4923":"Bl","4924":"Ġdating","4925":"Ġmatter","4926":"ĠRem","4927":"Ġ'../","4928":"ĠAug","4929":"ĠLa","4932":"iam","4933":"Ġshows","4934":"write","4935":"Ġball","4936":"Ġsimply","4937":"Ġfast","4938":"Ġmemory","4939":"ASS","4940":"ĠOf","4941":"oved","4942":"ante","4943":"aul","4944":"istry","4945":")));Ċ","4946":"Ġfit","4948":"Ġpolitical","4949":"ancel","4950":"_.","4951":"card","4952":".current","4953":"och","4954":"_image","4955":"\\t","4956":"#Ċ","4957":"(L","4958":"Ġindustry","4959":"coming","4960":"Ġextra","4961":"Ġreported","4962":".start","4963":"Ġresources","4964":"Ġimg","4965":"flow","4968":"ĠPre","4969":"Ġwrong","4970":"interface","4971":"Parameter","4972":"ners","4974":"ture","4975":"ersist","4977":"Ġseems","4978":"alance","4979":"dest","4980":"ĉString","4981":"Ġmaint","4982":"Ġunit","4984":"ĠTR","4985":"iful","4987":"project","4990":"Ġtakes","4991":"term","4992":"Ġetc","4993":"uster","4994":"Ġappear","4995":"address","4996":"Ġfem","4997":"hs","4998":"Ġhom","4999":",-","5000":"Ġdifficult","5001":"Ġcoming","5002":"Open","5003":"Ġsettings","5004":"ĠWar","5005":"ĠThen","5006":"Ġautom","5007":"ĠFoundation","5008":"Ġquite","5009":"Description","5010":"Ġblog","5011":"iqu","5012":"PS","5013":"_field","5015":"SSION","5016":"ĠSch","5017":"ĠLO","5019":"Ġeveryone","5020":"Ġpretty","5021":"Ġlonger","5022":"Ġmenu","5023":"Ġcurrently","5024":"sec","5025":"Ġrelationship","5026":"################################","5027":"ĠMap","5028":"aset","5029":"Ġparameters","5030":"Ġcrush","5031":"\"čĊ","5033":"igration","5034":"Ġcout","5035":"total","5036":"Ġnames","5037":"ndef","5038":"\");","5039":"riend","5040":"ynamic","5041":"Ġeffort","5042":"Ġactual","5043":"Ġfields","5045":"ters","5046":"Ġfix","5047":"_model","5048":"Ġcases","5049":"CA","5050":"My","5051":"Interface","5052":"ĠSE","5053":"]]","5054":"alle","5055":"ĠNational","5056":"ĠArrayList","5058":".V","5059":"ara","5061":"asc","5062":"Reader","5064":"astic","5065":"(()","5066":"Cl","5068":"Ġperformance","5069":"aily","5070":".toString","5071":".net","5072":"views","5073":".end","5074":"ayers","5075":"late","5076":"ĠApr","5077":"ederal","5078":"'])","5080":"Ġhigher","5081":"_fl","5082":"cr","5085":"ĠGoogle","5086":"Ġitself","5087":"Auth","5089":"Ġsignificant","5090":"append","5091":"Ġrespect","5092":"strap","5093":"Ġuna","5095":"PORT","5097":"Output","5098":"Ġprogress","5099":"Ġmid","5100":"ĠMicrosoft","5101":"Ġresource","5102":"ablish","5103":"Ġdim","5105":".App","5106":"Ġdirection","5107":"Ġadditional","5108":"ĠĠĠĠĠĠĠĠĠĠĠĠĠĠĠĠĠĠĠĠĠĠĠĠ","5109":"Ġnumbers","5110":"Ġcompanies","5111":".Th","5112":"Ġsound","5113":"username","5114":"Ġstatement","5115":"Ġalert","5116":"Ġcontract","5117":"home","5118":"_length","5120":"ev","5122":"ï¼ļ","5123":"\";","5124":"ĠHigh","5125":"Ġ)ĊĊ","5126":"ĠPoint","5127":"oph","5128":"Ġlines","5129":"->_","5130":"\")ĊĊ","5131":"ox","5132":"application","5133":"Ġ]Ċ","5134":"ĊĊĊĊĊĊ","5135":"Ġsoon","5136":"ctions","5137":"inger","5138":"Ġjoin","5139":"ĠPe","5141":"Ġlas","5142":".E","5144":"/or","5145":"ĠStart","5146":"ĠTO","5147":"Ġsubs","5148":"conn","5149":"components","5151":"quare","5152":"Function","5153":"endar","5154":".index","5155":"Ġfill","5156":"ÄĻ","5157":"Ġchoose","5158":"how","5159":"ĠAmerica","5161":"------------","5162":"ĠValue","5163":"Ġoffice","5164":"Ġveh","5165":"Ġtransform","5166":"ĠArt","5167":"Ġinde","5168":"Ġfn","5169":"Ġimplements","5170":"ango","5172":"+\"","5173":"tmp","5174":"amily","5175":"Ġhash","5176":"missions","5177":"EST","5178":"gt","5179":"Provider","5180":"ĠĠĠĠĠĠĠĠĠĠĠĠĠĠĠĠĠĠĠĠĠĠ","5181":"Ġflag","5182":"Ġparticip","5183":"den","5184":"ĠReturns","5185":"Ġnote","5186":"Ã¼r","5187":"pm","5189":"Ġspecified","5190":"ĠEN","5191":"ester","5192":"olid","5193":"Ġupon","5195":"ĉv","5196":"Ġ'\\","5197":"uz","5198":"Ġvert","5199":"Ġvict","5200":"ĉself","5201":"Ġ\"$","5202":".k","5203":"Ġgroups","5205":"lang","5206":"Ġmut","5207":"TO","5208":"Ġve","5209":"ĠPlease","5210":";ĊĊĊ","5211":"access","5212":"Ġ{\"","5213":"rea","5214":"Ġrisk","5215":"icker","5216":"oggle","5217":"ĉwhile","5218":"ANG","5219":".send","5220":"Ġwoman","5221":"Ġgets","5222":"Ġign","5223":"ĠId","5224":"_log","5225":"ONE","5227":"ĠHar","5228":"_sub","5229":"Ġendl","5230":"Ġincluded","5231":"());ĊĊ","5232":"ĠAp","5233":"igr","5234":"Ġsem","5235":"ĠBlack","5236":"doc","5237":"_table","5238":"ĠĠĠĠĠĠĠĠĠĠĠĠĠĠĠĠĠĠĠĠĠĠĠĠĠĠĠĠĠĠĠĠĠĠĠĠĠĠĠĠĠĠĠĠĠĠĠĠĠĠĠĠĠĠĠĠĠĠĠĠĠĠĠĠ","5239":"-up","5240":"Ġcause","5241":"Ġ..","5242":"Ġvan","5243":"_dict","5244":"Ġfocus","5245":"IND","5246":"CESS","5247":".Log","5248":"Ġmultiple","5249":"ido","5250":"Ġregard","5251":"-M","5252":"andler","5253":"ourse","5254":"Ġdeg","5255":".U","5256":"Ġaddition","5257":"Ġvarious","5258":"Ġreceive","5259":"ÐµÐ½","5261":"Obj","5262":"DF","5263":"Ġincrease","5264":"ĠOpen","5265":"];","5266":"Ġcommit","5267":"?Ċ","5269":"atory","5270":"ship","5271":"ĠMich","5273":"romise","5274":"Ġleave","5275":"Ġstrateg","5276":"aven","5277":"ĠConsole","5278":"known","5279":"-n","5282":"Ġbre","5283":"Session","5284":"iance","5285":"Ġalign","5287":"_result","5288":"ĠWHERE","5289":".split","5290":"Ġreading","5292":"Ġclo","5293":"Ġnotice","5294":"_pr","5295":"arter","5296":"Ġlock","5297":"Ġstandard","5298":"etic","5299":"ellow","5300":"Ġpadding","5301":"ĠHis","5302":"Ġstates","5304":"(P","5305":"aa","5306":"Ġinternal","5307":"ean","5308":"ĠPRO","5309":"ĠKey","5310":"Ġespecially","5311":"ming","5312":"Ġcross","5313":"Ġnational","5314":"_object","5315":"filter","5316":"Ġscript","5317":".update","5318":"_i","5320":"/core","5322":"Ġproblems","5323":"istor","5324":"Ġ.=","5325":"Ġarch","5326":"Ġwritten","5327":"Ġmilit","5328":"MENT","5329":".ch","5330":"cape","5331":"ĠMus","5333":"ĠAPI","5334":"foot","5335":"Ġimages","5336":"endl","5337":".In","5338":"First","5339":"Ġplatform","5341":"Option","5342":"ste","5343":"ĠTODO","5344":"Ġforce","5345":".cont","5347":"ĠDav","5349":"(B","5351":"ĠBase","5352":"]['","5353":"Ġannounc","5354":"console","5355":"ĠPy","5356":"ds","5357":".as","5358":"Ġprevent","5359":"apan","5360":"Ġ{'","5361":"}</","5362":"ĠService","5363":"ĠSen","5364":"ador","5365":"profile","5366":"Top","5367":"Ġiter","5368":"po","5369":"IES","5371":"IE","5372":"iant","5373":"ãĢģ","5374":"_j","5375":"ĠSept","5376":"_map","5377":"bum","5378":"(context","5379":"ĠHome","5380":"ians","5381":"GB","5382":"Ġliving","5383":"Ġpattern","5384":"(input","5385":"icient","5386":"Core","5387":"Ġentity","5388":"Ġinteg","5389":"Changed","5390":"Ġuseful","5391":".info","5392":"Ġtool","5393":"(item","5394":"Ġok","5395":"Ġfeed","5396":"IX","5397":"Ã©s","5398":"ĠNews","5399":"remove","5400":"erry","5401":"ĉĉĉĉĉĉĉĉĉ","5403":"ares","5404":"Do","5405":"Current","5406":".content","5408":"ustral","5409":"ĠÑģ","5410":"})","5411":"Ġpopular","5412":"Ġstre","5413":"Ġmethods","5414":"_ERROR","5415":"Left","5416":"cal","5417":"bsp","5418":".ToString","5419":"Ġdir","5420":"Ġallowed","5421":"Ġimpact","5422":"\")]Ċ","5424":"Ġelements","5425":"Ġprote","5426":"Ġtrain","5427":".tr","5428":"rs","5429":"ĠRepublic","5430":"ĠTask","5431":"aries","5432":"(D","5433":"(get","5434":"âĢ¦ĊĊ","5435":"Ġrelated","5436":"Ġvers","5437":"Ġsil","5439":"Ġcmd","5440":"Ġtechnology","5442":"Float","5443":"ĠUse","5444":"Body","5445":"should","5446":".join","5447":"Font","5448":"llum","5449":"ycle","5450":"ĠBrit","5451":"Ġmit","5452":"Ġscale","5453":"Ġ(_","5454":"ernel","5455":"\"))Ċ","5456":"Ġscore","5457":"/v","5458":"Ġstudent","5459":"UC","5460":".show","5461":"Ġaverage","5463":"(ex","5464":"common","5465":"imation","5467":"chie","5468":"Ġ...ĊĊ","5469":"river","5470":"ĠMarch","5471":"category","5472":"fin","5473":"Ġcourt","5474":"Ð²","5475":"Server","5476":"Ġcontainer","5477":"-st","5478":"_for","5479":"Ġparts","5480":"Ġdecision","5481":"obs","5482":"oub","5483":"mitted","5485":"Ġsaw","5486":"Ġapproach","5487":"ICE","5488":"Ġsaying","5489":"Ġanyone","5491":"SD","5492":"Ġsong","5493":"display","5494":"Oper","5495":"outes","5496":"Ġchannel","5497":"Ġchanged","5498":"Ãª","5499":"Ġfinally","5500":"_number","5501":"Please","5503":"oring","5504":"-re","5505":"Ġkill","5506":"Ġdrug","5507":"window","5508":"Ġconvert","5509":"ombre","5510":"Ġways","5511":"Helper","5512":"ĠFirst","5513":"(__","5514":"urity","5515":"ĠWindows","5516":"ees","5517":"Ġmat","5519":"Ġplus","5520":"anges","5521":"\"].","5523":"/t","5524":"lat","5525":"aste","5526":"Ġprofile","5527":"Ġready","5529":"rote","5530":"Ġsense","5531":"Gener","5533":"omy","5534":"ĠJune","5535":"Ġlatest","5536":"Ġsaf","5537":"Ġregion","5538":"Ġdeep","5539":"witch","5540":"ĠPark","5541":"}`","5542":"ĠFrom","5543":"II","5544":"Ġcv","5545":"Ġreach","5546":"Ġcounter","5547":"ĠWork","5548":"ĠURL","5549":"ĠUpdate","5550":"',čĊ","5551":"Ġimmedi","5552":"close","5554":"ferred","5555":"Ġweeks","5556":"urg","5557":"Ġdamage","5558":"Ġlost","5559":"ani","5560":"_lo","5561":"Ġhimself","5562":"Ġdog","5563":")]Ċ","5564":"ï¿","5565":"pir","5566":"tt","5567":"Ġpaper","5568":"Ġthems","5569":"second","5570":"Ġstaff","5571":"ĠInput","5572":"\"+","5573":"ĠFacebook","5577":"Ġthemselves","5578":"ĠComponent","5579":"Ġdriver","5580":"ja","5581":"(path","5582":"Ġcategory","5583":"alls","5584":"pu","5586":"ĠAction","5587":".button","5588":"ĠGL","5589":"istics","5590":"Ġoil","5591":"Ġstock","5593":"Ġdead","5595":"QUE","5598":"Return","5599":"Ġful","5600":"dom","5601":"Ġrules","5602":"Ġmodify","5603":"Ġeval","5604":"ham","5605":"atement","5607":"ula","5608":"=False","5609":"RA","5610":"Ġcontains","5611":"Ġstack","5612":"mar","5613":"Ġ{}Ċ","5614":"Ġundefined","5615":"Ass","5616":"ĠChina","5617":"vey","5618":"*Ċ","5619":"Ġplaying","5620":")/","5621":"actor","5622":"Ġbottom","5623":"lier","5624":"ĠNumber","5625":"Ġcouple","5626":"DC","5627":"ĠSO","5628":"gor","5630":"success","5631":"command","5632":"Filter","5633":"ĠOur","5634":"_item","5636":"Ġroad","5637":"Version","5638":"case","5639":"urt","5640":"avior","5641":"ych","5642":"sembly","5643":"ĠProduct","5644":"Ġheld","5645":"afe","5646":"Ġincludes","5648":"Ġavoid","5649":"ĠFin","5650":"ĠMod","5651":"Ġtab","5652":"ano","5653":"Ã±","5654":"ipping","5655":"-e","5656":"Ġinsert","5657":"target","5658":"chan","5660":"IME","5661":"\\Ċ","5662":"Ġmachine","5663":"avy","5664":"ĠNO","5665":"ĠInter","5666":"Ġoperation","5668":"Tag","5669":"]:","5670":"Ġproduction","5671":"Ġareas","5672":"Ġren","5673":"_from","5675":"Ġoperator","5676":"men","5677":"apped","5678":"_per","5679":"zen","5680":"(\".","5682":"=\"{{","5683":"Ġtor","5684":"(response","5685":"Ġcandid","5686":"Ġconv","5687":"ailed","5688":"ĠLib","5689":"comp","5690":"ura","5691":"ï¿½","5692":"ĠHere","5693":"Ġargument","5694":"hood","5695":"Ġestablish","5696":"ography","5699":"Ġsch","5700":"Ġmovie","5701":"Ġsec","5702":"Ġactivity","5705":"_all","5707":"Ġprovides","5708":"Ġsys","5709":"acket","5710":"Ġwasn","5711":"Ġuses","5712":"ĠFunction","5713":".google","5714":"ĠResult","5715":"Visible","5716":"agma","5717":"elcome","5718":"ĠSy","5719":"ĠCent","5721":"aciÃ³n","5723":"Ġlicense","5724":"ĠLong","5725":"Ġaccom","5726":"Ġability","5727":".height","5728":"Active","5729":"ological","5730":"oly","5731":")),","5732":".Se","5733":"Ġparameter","5734":"prite","5736":".service","5737":"ĠGroup","5738":"_query","5739":"ĠItem","5740":"ining","5741":"Ġjud","5742":"ims","5743":"fix","5744":"inder","5745":"agram","5746":"Ġfunctions","5747":"Ġexperi","5748":"ĠEm","5749":"Ġrot","5750":"Ġpen","5752":"ĠAS","5753":"#ifdef","5754":"Ġchoice","5755":"ĠPage","5757":"QU","5760":"ÂŃ","5761":"words","5762":"Ġreadonly","5763":"Ġflex","5764":"protected","5765":"ĠAny","5766":"Ġcharacters","5767":"enced","5768":"ĠJuly","5769":"iler","5770":"Card","5771":"urance","5772":"Ġrev","5773":".event","5774":"aly","5775":"Ġwonder","5776":"ĠPort","5777":"Ġlegal","5778":"role","5779":"Ġten","5780":"Ġgoes","5781":"MP","5782":"white","5783":"):čĊ","5784":"))čĊ","5785":"Ġreference","5786":"Ġmis","5787":"ĠProject","5788":"icks","5790":"CON","5791":"Ġrepl","5792":"Ġregular","5793":"Storage","5795":"Ġgoal","5796":"Ġtouch","5798":"Ġbuilt","5799":"des","5800":"Part","5801":"(re","5802":"Ġworth","5803":"hib","5804":"game","5805":"ĠÐ²","5806":"acion","5807":"ĠWhite","5808":"(type","5809":"(`","5810":"Ġnatural","5812":"Ġcalcul","5813":"ĠApril","5814":".List","5815":"Ġassociated","5816":"ĉSystem","5818":"=[","5819":"Ġstorage","5820":"Ġbytes","5821":"Ġtravel","5822":"Ġsou","5823":"Ġpassed","5824":"!=","5826":".open","5827":"Ġgrid","5828":"Ġbus","5829":"Ġrecogn","5830":"Ab","5831":"Ġhon","5832":"ĠCenter","5833":"Ġprec","5834":"build","5836":"ĠSan","5837":"Ġcountries","5838":"aled","5839":"token","5840":"kt","5841":"Ġqual","5842":"Last","5843":"adow","5845":"idad","5847":"Next","5848":"xf","5849":".a","5851":"ĠPM","5852":"erve","5853":"iting","5854":"_th","5855":"ci","5856":"=None","5857":"gs","5858":"Ġlogin","5859":"atives","5861":"Äħ","5862":"Ġill","5863":"IA","5864":"children","5865":"DO","5866":"Ġlevels","5867":"Ġ{{","5868":"Ġlooks","5869":"Ġ\"#","5871":"Ġnecessary","5872":"ĠĠĠĊ","5873":"cell","5874":"Entry","5875":"Ġ'#","5876":"Ġextrem","5878":"Ġplaceholder","5880":"Ġreleased","5881":"ORE","5882":"Enumer","5883":"ĠTV","5884":"SET","5885":"inq","5886":"Press","5887":"ĠDepartment","5888":"Ġproperties","5889":"Ġrespond","5890":"Search","5891":"ael","5892":"Ġrequ","5893":"ĠBook","5894":"/Ċ","5895":"(st","5896":"Ġfinancial","5897":"icket","5898":"_input","5899":"Ġthreat","5900":"(in","5901":"Strip","5904":"Ġevidence","5905":"));","5906":"ĠBro","5907":"Ġ[];Ċ","5908":"Ġou","5910":"Script","5911":"dat","5912":"Ġrule","5913":"#import","5914":"=\"/","5915":"Serial","5916":"Ġstarting","5917":"[index","5918":"ae","5920":"session","5921":"_new","5922":"utable","5923":"ober","5924":"Ġ\"./","5925":"Ġlogger","5926":"Ġrecently","5927":"Ġreturned","5928":"ččĊ","5929":")))Ċ","5930":"itions","5931":"Ġseek","5932":"Ġcommunic","5933":"Ġ\".","5934":"Ġusername","5936":"DS","5937":"Ġotherwise","5938":"ĠGerman","5939":".aw","5940":"Adapter","5941":"ixel","5942":"Ġsystems","5943":"Ġdrop","5944":"Ġstructure","5946":"encies","5947":"anning","5948":"ĠLink","5949":"ĠResponse","5950":"Ġstri","5952":"ĠDB","5955":"submit","5956":"otion","5957":"(@","5958":".test","5959":"ĊĊĊĊĊĊĊĊ","5961":"Ġdirectly","5962":"Ġ\"%","5963":"ris","5964":"elta","5965":"AIL","5967":"mine","5968":"ĠĠĠĠĠĠĠĠĠĠĠĠĠĠĠĠĠĠĠĠĠĠĠĠĠĠ","5969":"(k","5970":"bon","5971":"asic","5972":"pite","5973":"___","5974":"Max","5975":"Ġerrors","5976":"ĠWhile","5977":"Ġarguments","5978":"Ġensure","5979":"Right","5980":"-based","5981":"Web","5982":"Ġ-=","5983":"Ġintrodu","5984":"ĠInst","5985":"ĠWash","5986":"ordin","5987":"join","5988":"Database","5989":"Ġgrad","5990":"Ġusually","5992":"Props","5993":"?>Ċ","5994":"ĠGo","5997":"Ġip","5999":"Ġist","6001":"Ġserious","6002":"Ġcustomer","6004":"odo","6005":"cor","6006":"Ġdoor","6007":"ĠWITHOUT","6008":"Ġplant","6009":"Ġbegan","6010":"Ġdistance","6011":"()).","6012":"Ġchance","6013":"Ġord","6014":"came","6016":"Ġprotect","6017":"ragment","6018":"ĠNode","6019":"ening","6020":"Ñĩ","6021":"Ġroute","6022":"ĠSchool","6023":"hi","6025":"After","6027":"Ġcontr","6028":"Ġprimary","6029":"AA","6032":"Ġbi","6033":"Red","6035":".object","6036":"Ġleaders","6037":"unities","6038":"Ġgun","6039":"onth","6040":"ĠDev","6041":"FILE","6042":"Ġcomments","6043":"_len","6044":"arrow","6045":"amount","6046":"Range","6047":"sert","6049":"Ġupdated","6050":"ĠMo","6051":"Ġinform","6052":"ociety","6053":"ala","6054":"Access","6055":"Ġhab","6056":"Ġcreat","6057":"_arg","6058":"ĠJanuary","6059":"ĠDay","6060":"\")čĊ","6061":"uple","6062":"document","6064":"menu","6065":"ĠOver","6066":"bb","6067":".title","6068":"_out","6069":"Ġled","6070":"uri","6072":"gl","6073":"Ġbank","6076":"MD","6077":"Ġsample","6078":"Ġhands","6079":"ĠVersion","6081":"Ġoffers","6083":"Ġshape","6084":"Ġsleep","6085":"_point","6086":"Settings","6088":"Ġsold","6089":"ota","6090":".bind","6091":"Am","6092":"Ġsafe","6093":"Store","6094":"Ġshared","6095":"Ġpriv","6097":"Ġsens","6098":"){","6099":"Ġremember","6100":"shared","6101":"element","6102":"Ġshoot","6103":"Vert","6104":"cout","6105":"Ġenv","6106":"_label","6108":"run","6109":"Ġscene","6110":"(array","6111":"device","6112":"_title","6113":"agon","6114":"]čĊ","6115":"aby","6116":"Ġbecame","6117":"boolean","6118":"Ġpark","6119":"ĠCode","6121":"riday","6122":"ĠSeptember","6123":"Fe","6124":"Ġsen","6125":"cing","6126":"FL","6127":"Col","6128":"uts","6129":"_page","6130":"inn","6131":"Ġimplied","6132":"aling","6133":"Ġyourself","6135":"conf","6136":"Ġaud","6137":"_init","6138":".)","6139":"Ġwrote","6140":"NG","6141":".Error","6143":".for","6144":"Ġequal","6145":"ĠRequest","6146":"Ġserial","6147":"Ġallows","6148":"XX","6149":"Ġmiddle","6150":"chor","6151":"Ã¸","6152":"erval","6154":"reading","6156":"ĠAugust","6157":"Ġquickly","6158":"Ġweap","6161":"ho","6162":"Ġcop","6163":"(struct","6164":"ĠBig","6165":"Ġvs","6166":"Ġfrequ","6167":".Value","6168":"Ġactions","6169":"Ġproper","6170":"Ġinn","6171":"Ġobjects","6172":"Ġmatrix","6174":"Ġones","6176":"Ġgreen","6177":"Ġpaint","6178":"ools","6179":"ycl","6180":"encode","6181":"olt","6182":"comment","6183":".api","6185":"Ġune","6187":".position","6188":"Ġdesigned","6189":"_val","6190":"avi","6191":"iring","6192":"tab","6193":"Ġlayer","6194":"Ġviews","6197":"ĠON","6198":"rics","6199":"np","6200":"Ġcore","6202":"Main","6203":"Ġexpert","6205":"_en","6206":"Ġ/>","6207":"utter","6208":"IAL","6209":"ails","6210":"ĠKing","6211":"*/ĊĊ","6212":"ĠMet","6213":"_end","6214":"addr","6215":"ora","6216":"Ġir","6217":"Min","6219":"Ġrepe","6220":"Ġdirectory","6222":"-S","6223":"Ġelection","6224":"haps","6225":".pre","6226":"cm","6227":"Values","6228":"Ġ\"Ċ","6229":"column","6230":"ivil","6231":"Login","6233":"Ġbeautiful","6234":"Ġsecret","6235":"(event","6236":"Ġchat","6237":"ums","6238":"Ġorigin","6239":"Ġeffects","6240":"Ġmanagement","6241":"illa","6242":"tk","6243":"Ġsetting","6244":"ĠCour","6245":"Ġmassage","6246":"ĉend","6247":"Ġhappy","6248":"Ġfinish","6249":"Ġcamera","6250":"ĠVer","6251":"ĠDemocr","6252":"ĠHer","6253":"(Q","6254":"cons","6255":"ita","6256":"Ġ'.","6257":"{}","6258":"ĉC","6259":"Ġstuff","6260":"Ġ:Ċ","6261":"ĠAR","6262":"Task","6263":"hidden","6264":"eros","6265":"IGN","6266":"atio","6267":"ĠHealth","6268":"olute","6269":"Enter","6270":"'>","6271":"ĠTwitter","6272":"ĠCounty","6274":"Ġ=>Ċ","6275":"Ġhy","6276":"fit","6277":"Ġmilitary","6278":"Ġsale","6279":"required","6280":"non","6282":"hold","6283":"rim","6284":"-old","6285":"ĠDown","6286":"Ġmention","6287":"contact","6288":"_group","6289":"oday","6290":"Ġtown","6291":"Ġsolution","6292":"uate","6293":"elling","6294":"]->","6295":"otes","6296":"ental","6297":"omen","6299":"ĠSup","6301":"Ġslow","6302":"SESSION","6303":"Ġblue","6304":"ago","6305":"Ġlives","6306":"Ġ^","6307":".un","6308":"inst","6309":"enge","6310":"Ġcustomers","6311":"Ġcast","6313":"ï¼ģ","6315":"Ġdetermin","6316":"Selected","6317":"_pl","6319":"Ġdark","6320":"//ĊĊ","6321":"si","6322":"thern","6323":"ĠJapan","6324":"/w","6326":"ĠEast","6328":"Ġpackage","6329":"Ġnor","6330":"Ġapi","6331":"bot","6333":"_post","6334":"ulate","6335":"Ġclub","6337":"Ġloop","6338":"PIO","6339":"ione","6340":"shot","6341":"Initial","6342":"Ġplayed","6344":"rought","6345":"_max","6346":"acement","6347":"match","6349":"AST","6350":"Ġexisting","6351":"Ġcomplex","6352":"DA","6353":".Ch","6354":".common","6355":"mo","6356":"Ġ'../../","6357":"ito","6358":"Ġanalysis","6359":"Ġdeliver","6360":"ĠĠĠĠĠĠĠĠĠĠĠĠĠĠĠĠĊ","6361":"idx","6362":"Ãł","6363":"ongo","6364":"ĠEnglish","6365":"<!--","6366":"Ġcomputer","6367":"ENSE","6368":"Ġpas","6369":"Ġrais","6370":"Hash","6371":"Ġmobile","6372":"Ġowner","6374":"ĠĠĠĠĠĠĠĠĠĠĠĠĠĠĠĠĠĠĠĠĠĠĠĠĠĠĠĠĠĠĠĠĠĠĠĠĠĠĠĠĠĠĠĠĠĠĠĠĠĠĠ","6375":"thes","6376":"Ġattr","6377":"wd","6378":".time","6379":"awn","6380":"Ġtreatment","6381":"ĠAc","6383":"impl","6384":"more","6385":"pass","6386":"Ġha","6387":".from","6388":"Ġleading","6390":"(error","6391":".ui","6392":"atar","6393":"aders","6394":"dates","6395":"Ġzu","6396":"Ġflow","6397":"Target","6398":"Ġinvolved","6399":"Ġio","6400":"parse","6402":"hest","6403":".int","6404":"-item","6405":"asy","6406":"Sp","6407":"Ġshift","6408":"NT","6409":"Ġtf","6412":"CS","6413":"Ġ})","6414":"Ġeyes","6415":"_z","6417":"iforn","6418":"Ġ{@","6419":"Ġnice","6420":".list","6421":"ĠĠĠĠčĊ","6422":"Ġfloor","6423":"Ġredirect","6424":"ĠUK","6425":"(['","6426":"Ġwish","6427":"Ġcapt","6428":"legal","6429":"ĠIO","6430":"Ġstage","6433":"igen","6434":"ĠSH","6435":"Delete","6436":"ells","6437":"Ġsolid","6438":"Ġmeeting","6439":"Ġworked","6440":"Ġeditor","6441":"iny","6442":"Ð¼","6443":"_read","6444":".Id","6445":"eff","6447":"cha","6448":"USER","6449":"ĉĉĠĠĠ","6450":"ipped","6451":"Ġdict","6452":"ĠRun","6454":"Ġang","6456":"imple","6457":"Ġmedical","6458":"_token","6459":"connect","6460":"Ġhour","6461":"Ġcontroller","6462":"_message","6463":"UID","6464":"Gr","6465":"anded","6467":"Ġbooks","6468":"Ġspeak","6469":"aming","6470":"Ġmount","6471":"Record","6474":"ondon","6475":"Ġ//Ċ","6476":"Ġfelt","6478":"idge","6479":"_pos","6480":"PR","6481":"Ġmodern","6482":"Collection","6483":"_msg","6484":"CD","6485":"ĠLo","6486":"Ġseconds","6487":"ibly","6488":".equals","6489":"Ġinternational","6490":"#pragma","6491":"ooth","6492":"Writer","6493":"iate","6495":"ĠBit","6496":"ivo","6497":"ivery","6498":"rd","6500":"Ġcache","6501":".count","6502":"Ġroll","6503":".Read","6504":"RED","6505":"Ġsetup","6509":"Ġconsidered","6510":"=\"../","6511":"settings","6512":"ĠRel","6513":"Ġgrowth","6514":"Ġmix","6515":"ĠWashington","6516":"Ġplt","6517":"ĠIM","6519":"Ġturned","6520":"ĠDateTime","6521":"ĠWed","6523":"Ġ\"-","6524":"Ġletter","6526":"ĠĠĠĠĠĠĠĠĠĠĠĠĠĠĠĠĠĠĠĠĠĠĠĠĠĠĠĠ","6527":"ĠOctober","6528":"_line","6529":"Ġattention","6530":"Ġcollect","6531":"ĠHash","6532":"Ġimag","6533":"Tree","6534":"Ġsituation","6535":"ette","6536":"_no","6537":"IVE","6538":"Ġvon","6539":".target","6540":"Ġknowledge","6541":"Ġdrive","6542":".post","6543":"Ġblood","6544":"Ġcit","6545":"primary","6546":"Ġconfiguration","6547":"tee","6548":"Ġphoto","6549":"isode","6550":"Trace","6551":"Ġgave","6552":"Ġshot","6553":"ĠAir","6554":"Ġmother","6555":"price","6556":"Ġmorning","6557":")){Ċ","6558":"-x","6559":"Ġtrade","6560":"Ġdesc","6562":"Ġparents","6565":"ted","6566":"wer","6567":"Ġæ","6568":"Ġsy","6569":"ĠKe","6572":"ancy","6573":"Ġpiece","6575":"toString","6576":"ran","6577":"iding","6579":"comes","6581":".client","6582":"El","6583":"Long","6584":"Ġprofessional","6585":"rupt","6586":"va","6587":"Ġcompletely","6588":"Ġpractice","6589":"Ġselection","6590":"Rem","6591":"ini","6592":"Ġcam","6594":"Ġsites","6595":"pa","6597":"ÑģÑĤ","6598":"arrant","6599":"*(","6600":"_KEY","6601":"ĠButton","6602":"ĠFriday","6603":"sequ","6604":"Ġreader","6605":"Ġmessages","6608":"Ke","6609":"Ġnov","6612":"align","6613":"arily","6614":"Ġ',","6615":"_with","6616":"Ġdas","6617":"Ġheard","6618":"atomic","6619":"rial","6620":")[","6621":"Ġdise","6622":"@end","6623":"Ġgold","6624":"Ġfair","6625":"Ġsales","6627":"strict","6628":"save","6629":"Ġmeasure","6630":"Ġ\"+","6633":"ĠTable","6635":"Ġdecided","6636":"(((","6637":"INFO","6638":"Ġopportunity","6639":"Te","6642":"ki","6643":"ĠUN","6644":"Ġcontain","6645":"Ġmanager","6646":"Ġpain","6647":"ĠFire","6648":"rome","6649":"Ġplans","6650":"Found","6651":"lay","6652":"ĠDecember","6653":"Ġinflu","6654":"Ãº","6655":"rench","6656":"ĠĠĠĠĠĠĠĠĠĠĠĠĠĠĠĠĠĠĠĠĠĠĠĠĠĠĠĠĠĠĠĠĠ","6657":"azing","6658":"brief","6659":"call","6660":"wood","6661":"Ġloaded","6662":"Ġgrand","6663":"/f","6664":"imp","6665":"_U","6666":"STR","6667":"âĢ¢","6668":"Ġcredit","6669":".Color","6670":"orge","6672":"Ġdifference","6673":"ĠPC","6675":"Ġpub","6676":"unday","6677":"Ġfra","6678":".max","6679":"Ġtried","6681":"send","6682":"Ġreports","6683":"Ġadult","6684":"äº","6685":"Ġconsist","6686":"ĠStreet","6687":"ĠProgram","6689":"Matrix","6690":"ouncil","6691":"-A","6692":"ĉw","6693":"Ġwhose","6695":"ĠSex","6696":"Ġgives","6697":"none","6698":".message","6699":"(G","6701":"-right","6702":"ĠNovember","6703":"ellig","6704":"utive","6705":"Äĥ","6706":"overn","6707":"Ġeasily","6708":"Ġideas","6709":"ĠÐ½","6711":"lying","6712":"elle","6713":"Can","6714":"_color","6715":"Ð¾Ð²","6716":"Ġpair","6717":"ngth","6718":"Ġsplit","6719":"drop","6720":"arty","6721":"ona","6722":"Ġcapital","6723":"Ġhear","6724":"Ġexists","6726":"emo","6727":"Run","6728":"oi","6729":"Ġparser","6730":"ĠMethod","6731":"Ġeducation","6732":"[k","6733":"Ġlibrary","6735":"_UN","6737":"oded","6738":"Ġcalls","6739":"here","6740":"Rel","6741":"Ġbrand","6742":"background","6743":"ga","6744":"_address","6745":"_params","6746":"Category","6747":"ĠIndia","6748":"_event","6749":"Ġing","6751":".cl","6752":"umpy","6753":"Ġpet","6755":"ĠAnt","6756":"Ext","6757":"Ġcharge","6758":"ened","6759":"grad","6760":"EO","6761":"Ġdepend","6762":"Ġ.ĊĊ","6763":"frame","6764":"Ġdf","6765":"Ġhuge","6766":"ĠPART","6767":"eds","6768":";;","6769":"ĠAM","6770":"Ġbasic","6771":"ĠLet","6772":"lich","6773":"Ġarm","6774":"Ġstar","6775":"Ġfederal","6776":"Work","6777":"Ġcarry","6778":"ĠIsrael","6779":"(obj","6780":"={{","6781":"Ġsaved","6782":"Ġsyn","6783":"Ġconstant","6785":"Ġpositive","6786":"Ġconduct","6787":"Ġskin","6788":"Ġearlier","6789":"Ġlayout","6790":"ĠIP","6791":"OUR","6792":"Ġtim","6794":"_cl","6795":"ĠCard","6797":"Ġtemper","6798":"ĠDavid","6799":"ĉtry","6800":".dart","6801":"Ġwants","6802":"Ġpicture","6803":"Ġvideos","6804":"ĠComm","6805":"isions","6807":"Mapping","6808":"-content","6809":"ĠEar","6810":"-de","6811":"Ġprem","6812":"bruary","6813":"Ġcomponents","6814":"Ġthroughout","6815":"Ġpull","6816":"Ġpages","6817":"ente","6818":"respond","6819":"Ġgas","6820":"criptor","6821":"Ġedge","6822":"Ġbound","6824":"******","6825":"Ġcreating","6826":"ĠCH","6827":"Ġnullptr","6828":"Br","6829":"+'","6830":".co","6832":"Ġlearning","6833":".Length","6835":"Ġpatients","6836":"AIN","6837":"Ġkids","6838":"Ġcomfort","6839":"Ġshown","6841":"ĠBack","6842":"ella","6844":"Ġlat","6845":"Ġdispatch","6846":"Ġclasses","6847":".at","6848":".begin","6849":"Ġsuccessful","6850":"ban","6851":"Ġobtain","6852":"ĠSl","6853":"Ġlack","6855":"Thread","6856":"(size","6857":"Ġnone","6858":".has","6859":"_X","6860":"sort","6861":"nap","6862":"pet","6863":"bin","6864":"ĠCanada","6865":"They","6866":"Ġdans","6867":"ĠMat","6869":"Ġhair","6871":"Ġcu","6872":"Ġlaws","6873":"leted","6874":"ped","6875":"Ġpow","6876":"Ġknew","6878":"_,","6879":"ĠMag","6880":"idents","6881":"(req","6882":"Ġ),","6883":"-center","6884":"Ġwide","6885":"ĠAuthor","6887":"Ġjobs","6888":"Ġmath","6889":"etimes","6890":"Boolean","6891":"Ġscope","6892":"_is","6893":"Ġmeas","6894":"Ġkeys","6895":"elay","6896":"Ġexactly","6898":"ĠPaul","6899":"mas","6900":"ĉprint","6901":"(len","6902":"fd","6903":"Ġ);","6906":"irit","6907":"ields","6908":"oman","6909":"ĠTop","6910":"Ġvote","6911":"Ġmask","6912":"Ġtheme","6913":"-Ċ","6914":"Ġprops","6915":"Ġfine","6916":"Ġwriter","6917":"_offset","6918":"car","6919":"Ġaltern","6920":"Ġcopyright","6921":"Ġdestroy","6922":"pper","6923":"Ġgenerate","6924":"pped","6925":"âĢĻd","6926":"ĠĠĠĠĠĠĊ","6927":"make","6928":"ĠShow","6929":"Ġbrowser","6930":"Ġfavorite","6931":"Ġcareer","6932":"Ġhappened","6933":"(char","6934":"Ġrecommend","6935":"Ġliter","6936":".filter","6937":"grade","6938":"ĠÂ£","6939":"Phone","6940":"oms","6941":"Ġnamed","6942":"-label","6943":"ipo","6944":"ĠOther","6945":"Ġpanel","6946":"Ġrock","6947":"Scale","6948":"ĉassert","6949":"Ð´","6950":"Ġtrust","6951":"front","6952":"Ġdemon","6953":"Ar","6954":"Net","6955":"Ġeconomic","6957":"Ġrace","6958":"(node","6959":"ĠOption","6960":"split","6961":"Ġphysical","6962":"ifest","6963":"Ġremoved","6964":".http","6965":")),Ċ","6966":"Ġlooked","6967":"';","6968":"ding","6969":"gest","6970":"aturday","6972":"Price","6973":"Ġdro","6974":"Ġtowards","6975":"Ġuns","6976":"ĠCL","6978":"Ġrows","6979":"Ġdefine","6980":".replace","6981":"Ġfather","6982":"ĠDesign","6983":"assign","6984":"mut","6985":"Device","6986":"Did","6987":"'))Ċ","6988":"ometry","6990":"Ġhistor","6991":"ĠParam","6993":"Ġnature","6994":"Ġjs","6995":"Ġnation","6996":"ih","6997":"Ġdiscover","6998":"sem","6999":"Handle","7000":"ĉr","7001":"ĠTechn","7002":"Ġwall","7004":"@property","7005":"Ġ\"../","7006":"Ġexam","7008":"opping","7009":"Ġnearly","7010":"Ġcool","7011":"Ġindepend","7012":"RES","7013":"Ġhandler","7014":"ĠMonday","7015":"Ġsun","7017":"ously","7018":"Ġĉ","7019":"vest","7020":"Display","7021":"(y","7022":"atically","7023":"Ġpredict","7024":"ying","7025":"Ġsometimes","7026":"\"]Ċ","7027":"Ġdrink","7028":"Ġbul","7029":"ifications","7030":".insert","7031":".reg","7032":"Ġtests","7033":"Alignment","7034":"Ġalleg","7035":"Ġattribute","7036":"ĠNote","7037":"Ġmyself","7038":"arts","7039":"Now","7040":"Ġinteresting","7042":"Ġpopulation","7043":"ĠCalifornia","7044":"\"I","7046":"Ġgreater","7049":"Ġcosts","7050":"Ġlaunch","7052":"ker","7053":"band","7054":"ĠPlay","7055":"Ġband","7056":".shape","7058":"article","7061":"Ã¡s","7062":"embers","7063":"usr","7064":"BA","7065":"ican","7066":"ett","7067":"validate","7068":"ulti","7069":"Ġimmediately","7070":"zer","7071":"Ġfigure","7072":"oes","7073":"eller","7074":"ircle","7075":"ĠSign","7076":".db","7077":"Ġrank","7079":"Ġprojects","7080":"_rec","7082":"API","7083":"ĠLine","7084":"Port","7085":"Ġpoll","7086":"Ġgiving","7087":"idence","7088":"--Ċ","7089":"Ġplot","7090":"icial","7091":"Ġwarrant","7092":"ITION","7093":"ĠDouble","7094":"Ġbillion","7095":"gorithm","7096":"Ġequipment","7098":"Ġ@\"","7099":"EE","7100":"Ġple","7101":"iation","7102":"Ġheaders","7105":"ĠObama","7106":"Ġpa","7107":"ĠBest","7108":"imately","7110":".\\","7111":"mploy","7112":"Ġraw","7113":"_block","7114":"undred","7117":"Ġbrought","7119":"throw","7120":"created","7121":".New","7122":"_view","7123":"CP","7124":"eps","7125":"Op","7127":"Ġ'\"","7128":"Ġinterview","7129":"\"\"\"Ċ","7130":"Ġpartial","7131":"Ġaria","7132":"bing","7134":"Book","7135":"ĠPat","7136":"uman","7137":"Users","7138":"plus","7139":"ĠDirect","7140":"venue","7141":"alpha","7143":"ĠCall","7145":"imated","7146":"Ġremain","7147":"Ġanti","7148":"ĠLondon","7149":"Ġsafety","7151":"oles","7153":"Byte","7154":"ĠCourt","7155":"ĠPhil","7156":"ĠAssoci","7157":"ena","7158":"åĲ","7160":"coin","7162":"Ġbatch","7163":"_Click","7166":"enty","7167":"Ġbeginning","7168":"Ġzero","7169":"ĠConvert","7170":"Ġterr","7171":"Ġpaid","7172":"Ġincreased","7173":"catch","7174":"-size","7175":"activity","7176":"equals","7177":"Ġqueue","7178":"Ġ\"'","7179":"ĠInternational","7180":"ĠfÃ¼r","7181":"ursday","7182":"Ġscient","7183":"allow","7184":"axis","7185":"Ġappropri","7186":"edge","7187":"Ġidx","7188":"Success","7190":":\\","7192":"Ġmaximum","7193":"arks","7194":"Ġbirth","7195":"(index","7196":"Ġmaybe","7197":".py","7199":"Ġlimited","7200":"_check","7201":"look","7202":"plies","7203":"Ġmovement","7204":"'].","7205":"Ġbroad","7206":"ĠBE","7209":"ĠEvery","7210":"Admin","7211":"Ġfans","7212":"pared","7213":"ĊĠĠĠĠĊ","7214":"Ġforeign","7215":"Ġpan","7216":"Ġtour","7217":"ĠOrder","7218":"Ġmoving","7219":"Ġauf","7220":"Call","7221":"cb","7222":"ÅŁ","7223":"ventory","7225":"Ġfully","7226":"ClickListener","7227":"WORD","7228":"Ġannounced","7229":")čĊčĊ","7230":"Ġagreed","7231":"rie","7232":"Ġearn","7233":"_link","7234":".array","7235":"(text","7236":"Ġmaterials","7237":",p","7238":"ffff","7239":"vg","7240":"ĠÂ©","7241":"Ġunless","7243":"LOG","7244":"Ġsexual","7245":"Ġ\\\"","7246":"-time","7247":"Ġcoach","7248":"Ġsupported","7249":"Ġphotos","7250":"iform","7251":".Create","7252":")]","7253":"rier","7254":"Ġdialog","7255":"aver","7256":"ige","7257":")+","7258":"_idx","7259":":[","7260":"_min","7261":"ĠCong","7262":"Ġpressure","7263":"Ġteams","7264":"Sign","7265":"begin","7266":"rian","7267":"NESS","7268":"LS","7269":"Ġimprove","7270":"ĠSunday","7271":"Ġdefinition","7272":"iger","7273":"rollers","7274":"Ġthinking","7276":"-F","7277":"Ġemerg","7278":"plates","7279":"ĠUSA","7281":"ĠAlso","7282":"rev","7283":"Ġenable","7284":"ĠCO","7285":"PECT","7286":"Ġconcept","7287":")-","7288":"ĠâĢ¢","7289":"Ġsets","7290":"Ġmeaning","7291":"emon","7292":"ĠCons","7293":"cmp","7294":"eder","7295":"anned","7297":"ĠSuper","7298":"Ġdaily","7299":"Ġmulti","7300":"_u","7301":"Ġchalleng","7302":"_mode","7303":"ĠPromise","7304":"Ġstrict","7305":"jo","7306":"inton","7307":"(list","7308":"Only","7309":">{","7310":"Ġvehicle","7312":"ĠPlayer","7313":"ĠDel","7314":"Ġpool","7315":".url","7316":"nesday","7318":"Ġ\");Ċ","7319":"Local","7320":".\");Ċ","7321":"Ġorganization","7322":"render","7323":"ĠApplication","7324":"Ġsummer","7325":"expected","7326":"NA","7327":"Ġrap","7328":"_obj","7329":"Ġsurface","7330":"ĠPUR","7332":"Ġvariables","7333":"(message","7334":"Ġopin","7335":".back","7336":"Ð°Ð½","7337":"Ġworkers","7338":"vm","7339":"Co","7340":"ughter","7341":"Ġmaster","7342":"Ġ\"\",","7343":"Ġstories","7344":".User","7345":"Ġcelebr","7346":"inese","7347":"BS","7348":"ĠCommand","7350":"Ġog","7351":"kg","7354":"Ġsteps","7355":"ĠBen","7356":"(args","7357":"ĠPerson","7358":",y","7359":"Ġofficials","7360":"|Ċ","7361":"Ġskills","7362":"vc","7363":"Ġbuilder","7364":"Ġgar","7365":"Account","7366":"ĠAuth","7368":"'])Ċ","7369":"ĠAT","7370":"nn","7371":".Int","7372":"SSERT","7373":"Ġeffective","7375":"Ġtools","7376":"ARD","7377":"Ġdigital","7378":"Double","7379":"ĠFind","7381":"Ġinline","7382":"/r","7384":"ASK","7385":"Ġintent","7386":"aight","7387":"_addr","7388":"Ġrequests","7389":".first","7390":"Ġdebug","7391":"Ġspent","7393":"ÅĽ","7394":"Ġprincip","7396":"cludes","7397":".use","7399":"media","7400":"ĠFebruary","7401":"ĠMac","7402":"Ġmissing","7403":"Ġwife","7404":"Ġtalking","7405":"ĠMake","7406":"Ġcart","7407":"Ġlocated","7408":"Enc","7409":"-a","7410":"chron","7411":"Ġcards","7412":"Ġguy","7413":"Ġpers","7414":"ĠYes","7416":"ĠAng","7417":"olar","7418":"ĠEven","7419":"Ġaccur","7420":"ĠPower","7421":"ĠGold","7422":"clear","7423":"Process","7424":"Ġrecords","7425":"Ġkilled","7426":".clear","7427":"ĠWARRANTIES","7428":"Ġpurpose","7429":"panel","7431":"ÃŃa","7432":"Ġexerc","7433":"WS","7434":"/L","7436":"Ġ___","7437":"Ġsin","7439":"ĠdÃ©","7440":".delete","7441":"roke","7442":"Sl","7443":"ugh","7444":"ears","7445":"Ġpointer","7446":"Ġhop","7448":"Ġobs","7449":"covery","7452":"ĉdef","7453":"ocity","7454":"itchen","7455":"ulations","7456":"ĠFIT","7457":"Ġ).","7458":"straints","7459":"vention","7460":"Ġrequires","7461":"ĠOper","7462":"ME","7463":"OUNT","7464":"allet","7465":"Ġnorm","7466":"IRE","7468":"Ġprograms","7469":"Ġweak","7471":"uing","7472":"ĉĠĠĠĠĠĠĠ","7473":"Ġmil","7474":"Ġfirm","7475":"initely","7476":"_VALUE","7477":"apse","7478":"atisf","7479":"Ġdemand","7480":"_mod","7481":"Ġdescribed","7482":"Ġplaces","7483":"VID","7484":"Ġalone","7485":"Ġexport","7486":"Ġvec","7487":"ĠMax","7488":"Ġactivities","7489":"ictures","7490":"gener","7491":"Ġma","7493":"Ġexpression","7495":"_content","7496":"ĠMost","7497":"Ġtesting","7498":"EC","7500":"Ġadjust","7503":"Ġagree","7504":"ighest","7506":"ĠLaw","7507":".Y","7509":"Ġpod","7510":"-lg","7511":"âĢĿĊĊ","7512":"Ġdescribe","7513":"ĠEuropean","7514":"-sh","7515":"ĠPURPOSE","7516":"ORY","7517":"Ġconvers","7518":"ĠIlluminate","7519":"ĠAv","7520":"(ch","7521":"?\"","7522":"chen","7523":"ima","7524":"Document","7525":"Ġoperations","7526":"win","7527":"ĉfunction","7529":"Ġscen","7530":"/h","7531":"ĠSC","7532":"Ġexplo","7533":":%","7535":"NAME","7536":"æĪ","7537":"(var","7538":"Ġdirector","7539":"ONG","7540":"Ġyield","7541":"Ġfeet","7542":"ĠSearch","7543":"ĠIl","7546":"Ġinteger","7548":"Ġhighly","7549":"checked","7550":"ĠPARTIC","7552":"ï¼ī","7553":"Ġoptim","7554":"Queue","7556":"itation","7557":"Ġtransport","7558":"ission","7559":"fill","7560":"usion","7561":"ĠĠĠĠĠĠĠĠĠĠĠĠĠĠĠĠĠĠĠĠĠĠĠĠĠĠĠĠĠĠ","7562":"ĉbool","7563":"-th","7564":"upt","7565":"Ġessential","7566":"anted","7567":"Ġbenefits","7568":"ĉS","7570":"iki","7571":"Ġgirls","7572":"iced","7574":"]+","7575":"Ġsocket","7576":"Ġprices","7577":"ĠFre","7578":"Ġsat","7579":"Ġwood","7581":"ARG","7582":"ĠAdmin","7583":"OWN","7584":"dk","7585":"Ġreset","7586":"Ġforms","7587":"ĠÐ¸","7589":"ĠTuesday","7590":"ĠInitialized","7592":"orary","7593":"ategor","7594":"Ġdt","7595":"Total","7596":"construct","7597":"ilies","7598":"Ġguys","7599":"ÐµÑĢ","7600":"Ġinstruction","7601":"yled","7602":"Ġinternet","7604":"ady","7605":"faces","7606":"jection","7607":"ĠJack","7608":"Ġrect","7609":"[-","7610":"ĠLeg","7611":"Ġdevices","7612":"OC","7613":"Ġ*čĊ","7614":"oration","7615":"ertain","7616":"Ġguard","7617":"ostream","7618":"Ġenum","7621":"voke","7622":"ĠOk","7623":"Home","7624":"(tr","7625":"ETH","7626":"Ġdelay","7627":"Ġpurchase","7628":"dc","7629":"Ġaren","7630":"_once","7631":"ĉĉĉĉĊ","7632":"ror","7633":"draw","7634":".run","7635":"(model","7636":"Timeout","7637":"lik","7638":"ĠArg","7639":".en","7640":"Ġfish","7641":"cpy","7642":"_fe","7644":"(X","7645":"_output","7646":"??","7647":"Ġjo","7649":"Ġdoll","7650":"errors","7651":"_base","7652":"ĠPARTICULAR","7653":"Ġleader","7654":"Ġcompar","7655":"Ġdoub","7656":"ĠVis","7658":"-C","7659":"ĠStud","7660":"stitute","7661":"More","7662":"ĠDescription","7663":"WARE","7664":"ads","7665":"ĠÐº","7666":"bind","7667":"=self","7668":"employ","7669":"[n","7670":".all","7671":"-B","7673":"alm","7674":"Ġculture","7675":"house","7676":"Ġsuffer","7677":"Ġ'%","7678":"Ġstraight","7679":"ĠStar","7680":"udo","7681":"Ġded","7682":"ĠCOM","7683":"Ġconfirm","7684":"ĠGood","7685":".sc","7686":"________________","7687":"DR","7689":"DateTime","7690":"Ġadvert","7691":"Ġcouldn","7692":"async","7693":"stack","7695":"Kit","7697":"Ġmechan","7698":"rate","7699":"Ġaudio","7701":"cores","7702":"Ġspot","7703":"Ġincreasing","7704":"Ġ##","7705":")))","7706":"points","7707":"Ġcompared","7708":"lig","7709":"Ġbehavior","7710":"ĠBY","7711":"ĠAtt","7712":"craft","7714":"ete","7716":"Ġdetail","7718":"ĠCommon","7720":"ston","7722":"Ġfresh","7723":"\">ĊĊ","7724":".example","7725":"berg","7726":"Ġmoved","7727":"ĉe","7728":"ĠSaturday","7729":"Ġpayload","7730":"Äĩ","7731":"):ĊĊ","7732":"Ġbey","7733":"urer","7735":"Ġsymbol","7737":"Ġpul","7738":"Effect","7739":"Ġhundred","7740":"Tool","7741":"aked","7742":"connection","7743":"Ġvoice","7745":"Ġtransaction","7746":"Ġlinks","7747":"Err","7748":"ĠIndian","7749":"TC","7751":"ni","7752":"sign","7754":"ji","7755":"ya","7756":"Ġdemonstr","7757":"ulated","7758":".St","7759":"Ġinstit","7760":"Ġboost","7761":"Ġcells","7762":"olic","7764":":</","7766":"ifying","7767":"ĠDi","7768":"orrow","7770":"Ġcollege","7771":"Your","7772":"Ġlargest","7773":".dis","7774":"Ġqui","7775":"Ġindividuals","7776":"_buffer","7777":"Ġng","7778":"SA","7779":"ĠControl","7780":"Ġsing","7781":"Ġsuit","7782":"ĠĠĠĠĉ","7783":"SG","7784":"Ġjump","7785":"Ġsmart","7786":"oma","7787":"ĠExp","7788":"Ġ'-","7789":"Ġassist","7790":"Ġsuccessfully","7791":"sys","7792":"ĠCre","7793":"_ref","7794":"ĠThursday","7795":"Ġbur","7796":"ĠÐ´","7797":"Ġbeyond","7798":"Ġnodes","7799":"Details","7800":"inct","7801":"ĠJames","7802":"Ġaffect","7803":"exception","7804":"Ġtypeof","7806":"-se","7807":"Ġfetch","7808":"`,","7810":"}.","7811":"ĠBO","7812":"Show","7813":"Ġrates","7814":"Ġbon","7816":"ĠMedia","7817":"RESS","7818":"ĠValid","7819":"Ð¾Ð»","7821":"acks","7822":"Ġstudies","7823":"Me","7824":"Ġowners","7825":"}else","7826":"Ġgrowing","7827":"Variable","7828":"ĠBel","7830":"vement","7831":"onym","7832":"(F","7834":"Ġtorch","7835":"(row","7836":"igo","7837":"structure","7838":"Ġcertainly","7839":"Dep","7840":"ĠGreen","7841":"question","7842":"Ġadding","7843":"ĠDevelop","7844":"_def","7845":"Ġmach","7846":"=%","7847":"ĉĉĠ","7848":"conds","7849":"Project","7850":"Ġreject","7851":"ĠÎ","7852":"Ġpoor","7853":"Ġaware","7854":"ĠBuild","7855":"ĠBritish","7856":"ĠNE","7857":"Ġnumer","7858":"rees","7859":"claim","7860":"Ġmock","7861":"Ġom","7863":"OLD","7864":".pl","7865":"eler","7866":"Ġcorrespond","7868":"Ġbinary","7869":"_order","7872":"Ġprev","7873":".[","7874":".assertEqual","7876":"arp","7877":"Ġclosed","7880":"aud","7881":"Ġdeveloped","7882":"Ġpermission","7885":"Ġ'Ċ","7886":"Ġsym","7887":"atively","7888":"Ã©e","7889":"-color","7891":"ky","7892":"Ġalthough","7893":"_request","7894":"_element","7897":"Ġamazing","7899":"ĠDefault","7900":"Events","7901":"Ġfailure","7902":"acle","7903":"Properties","7904":"Ġdream","7906":"Ġau","7907":"Ġgenerated","7909":"ĠTeam","7910":"USE","7911":"Ġincome","7912":"Ġeye","7913":"_not","7915":"_form","7916":"Support","7917":"orders","7918":".Print","7919":"ville","7920":"ĠWednesday","7921":"olver","7922":"Ġoppos","7923":"isation","7924":"ola","7925":"Close","7926":"<p","7927":"_width","7928":"Invalid","7931":"_action","7932":"Ġtxt","7933":"ĠPath","7934":"alar","7936":"service","7937":"ĠMichael","7938":"ableView","7940":"okes","7941":"She","7942":"Ġguess","7943":"ĠJava","7945":"Ġparticularly","7946":"ĠII","7947":"Ġdomain","7948":"å¹´","7949":"Ġreduce","7950":"-left","7951":"real","7952":"Ġappears","7953":"Ġcomo","7954":"ĠUnit","7955":"ĠGovern","7956":"ali","7957":"allel","7958":"ĠJew","7959":"_I","7960":"Ġcos","7961":".color","7962":"ĠGlobal","7963":"Ġtele","7964":"ben","7965":"_trans","7966":"Ġreasons","7967":"Ġemb","7968":"ensity","7969":"lines","7970":"omin","7971":"Screen","7972":"Ð°ÑĤ","7973":"pects","7974":"clip","7975":"foo","7976":"rent","7977":"Ġaf","7978":"Ġdanger","7979":"iling","7980":"Names","7981":"Our","7982":"Ġdistribution","7983":"While","7984":"SL","7985":"Write","7986":"Ġgoto","7987":"Ġcolors","7988":"Ġpowerful","7989":"kin","7990":"Ġdepth","7992":"ĠCongress","7993":"ĠMarket","7994":"Db","7995":"under","7996":"ĠLast","7997":"ÃŁ","7998":"greg","7999":"Ġposts","8001":"otos","8002":"Don","8003":"Ġmicro","8004":"Ġarrest","8005":"Ð¿","8006":"Ġ(@","8007":"ĠHot","8008":"ĠIndex","8010":"#!","8011":"ĠNor","8012":"ĠCap","8013":"-(","8014":"Ġinterested","8015":"pear","8016":"Ġrent","8017":"Ġalbum","8018":"olicy","8019":".lang","8021":".format","8023":"phere","8024":"Ġaxis","8025":"ĠBusiness","8026":"ersistence","8027":"urr","8028":"Ġminimum","8029":"endor","8031":"ĠInternet","8033":"Exp","8034":"iverse","8035":"MM","8036":"Ġobvious","8037":"Ġbasis","8038":"Ġscience","8039":"Ġbudget","8040":"izations","8041":"PA","8042":"Ġflags","8043":"pret","8044":"LOCK","8045":"Ġvariety","8046":"Ġtruth","8047":"dt","8048":"Ġgone","8049":"Ġbattle","8050":"<std","8051":"ĠSil","8052":"rf","8053":"uda","8055":"ĠCam","8056":"Ġstation","8058":"cheme","8059":"ĠSun","8060":"Ġfinished","8061":"Ġshop","8062":"ĠKore","8063":"Ġeight","8064":"_REG","8065":"ND","8066":">,","8068":"(num","8070":"Transaction","8071":".On","8072":"Ġmail","8073":"rey","8074":"results","8075":"Ġnav","8077":"_ids","8078":"Make","8079":"åĬ","8081":"ĠLOG","8082":"ĠSur","8083":"Ġinstanceof","8084":"Ġoverall","8085":"ĠInformation","8086":"Ġconstruction","8088":"but","8089":"Ġmedic","8090":"Ġduration","8091":"itness","8092":"agent","8093":"AV","8094":"Ġseven","8095":"olf","8096":"Ġ}}Ċ","8098":"Ġcalling","8099":"Ġans","8103":".fl","8104":"ĠStatus","8105":"ĠOnline","8107":"ĠRich","8108":"ĠHill","8109":"Ġbrain","8110":"Ġfollowed","8111":"emic","8112":"Ġslight","8113":"Ġinsurance","8114":".Array","8115":"Ġabstract","8116":"ĠSum","8117":"redirect","8118":"owner","8119":"(msg","8120":"ĠClinton","8121":"Non","8122":"ĉex","8123":"Ġvolume","8125":"-L","8126":"ĠDim","8127":"ĠMart","8128":"Ġcursor","8129":"Ġimplementation","8130":"urred","8131":"Ġlarger","8132":");ĊĊĊ","8133":"'+","8134":".transform","8135":"Ġupload","8136":"ĠĠĠĠĠĠĠĠĠĠĠĠĠĠĠĠĠĠĠĠĠĠĠĠĠĠĠĠĠĠĠĠĠĠĠĠĠĠĠĠĠĠĠĠĠĠĠĠĠĠĠĠĠĠĠ","8137":"Draw","8138":"nel","8139":"ĉfloat","8141":"ĠNetwork","8143":"Axis","8145":"Ġcompleted","8146":"Ġmur","8147":"Ġcolumns","8148":"xc","8149":"Ġsupply","8150":"iminal","8151":"Ġspr","8152":"================================================================","8153":"Ġunits","8154":"(u","8155":"mi","8156":"replace","8157":"[key","8158":"à¹","8159":"antic","8160":"Ġpayment","8161":",B","8162":"ĠApple","8163":"gin","8164":"Required","8165":"#+","8166":"lands","8167":"Ġsqu","8168":"Ġfactor","8169":"dec","8170":"Ġstrength","8171":"Ġboy","8172":"Ġbalance","8173":"Ġsources","8174":"screen","8175":"-top","8176":"ĠAmazon","8177":"Ġhidden","8178":"ÐµÑĤ","8179":"_client","8180":"Ġeat","8181":".display","8182":"ĠÂ»","8183":"Ġtrigger","8184":"anager","8185":"Ġtro","8186":"Ġclaims","8187":"ford","8188":"ĠCompany","8189":"Ġgift","8190":",:","8191":"_app","8192":"handle","8193":"Ġproduce","8194":"/lib","8195":"Ġ-*","8196":"ĉset","8198":"arc","8199":"ander","8200":"ĠEngine","8201":"Ġattributes","8202":"task","8203":"<=","8204":"(N","8205":"Ġwarm","8206":"which","8207":"ĠFore","8209":"mys","8210":"Ġtal","8211":"ĠSal","8212":"gi","8213":"ĠPrint","8214":"ĠTRUE","8215":"ĠÐ¾","8217":"Ġflash","8219":".location","8220":"ĠMill","8221":"bi","8222":"contr","8224":"ĠSam","8225":"Ġnegative","8226":"kit","8227":"Ġsett","8229":"abe","8230":"ĉi","8231":"Ġburn","8232":"Ġsociety","8233":"Cache","8234":"ĠSecurity","8237":"_up","8238":"ceive","8239":"Ġclients","8240":".Tr","8241":"Ġproviding","8242":"Ġrout","8243":"material","8244":"Ġ||Ċ","8245":"ĠSer","8246":"ĠOffice","8248":"Ġ'$","8249":"Ġfoc","8250":"Ġexcell","8251":"Ġcat","8252":"normal","8253":"Ġdetermine","8255":"Pane","8256":"Ġemployees","8257":"ĠTexas","8259":"ĠReport","8260":"anta","8261":"ĠBox","8263":"Ġpartner","8264":"EB","8266":"Ġfeeling","8267":"Ġcivil","8268":"(float","8270":"Ġwouldn","8271":".init","8272":".left","8273":"-v","8274":"_level","8275":"'}","8276":"AF","8277":"Ġloading","8278":"ĠOnly","8279":"Ġcookies","8280":"ĠGl","8281":"CO","8282":"Ġstrategy","8283":"('./","8284":"Ġship","8285":"poses","8286":"Ġsignal","8287":"Ġalpha","8288":".pop","8290":"Ġreplace","8292":"counter","8294":"ela","8295":"Weight","8296":"hash","8297":"bose","8298":"fx","8299":"ĠEmail","8300":"Ġrefer","8301":"localhost","8303":"iques","8304":"Step","8305":"Ġahead","8307":"ĠServices","8310":"Ġpun","8311":"Ġappropriate","8312":"akers","8313":"osen","8314":"posing","8315":"Ġagent","8316":"fc","8317":"Ġtransfer","8318":"Ġinvalid","8319":"ĠResearch","8320":"Vertex","8321":"Ġgay","8322":"Ġjournal","8323":"[x","8325":"ĠWell","8327":"Spec","8328":"Ġol","8329":"Ġspend","8330":"ĠAustralia","8331":"Match","8333":"ĠĠĠĠĠĠĠĠĠĠĠĠĠĠĠĠĠĠĠĠĠĠĠĠĠĠĠĠĠĠĠĠĠĠĠĠĠ","8334":"ĠMAX","8335":"izable","8336":"clusive","8337":"_valid","8338":"Ġquarter","8339":"yan","8340":"ĠEdit","8341":"arden","8342":"=new","8343":"Ġfrag","8344":"Bit","8345":"zi","8346":"aine","8347":"udd","8349":"debug","8350":"Ġcash","8353":"Ġcommercial","8354":"ĠVideo","8355":"loader","8356":"Ġfixed","8357":"Ġapplications","8358":"Ġ_,","8359":"ĠRussia","8360":"itect","8361":"_(","8362":"ĠBlock","8363":"Ġsan","8364":"ĠTom","8365":"Ġperhaps","8366":"Ġsig","8367":"levant","8370":"ronic","8372":"Ġeth","8373":"Some","8374":"pop","8376":"Ġtend","8377":".Res","8378":"_and","8379":"Ġreviews","8380":"Ġwild","8381":"Ġdegree","8382":".O","8383":".objects","8384":"_args","8385":"nil","8387":"Parent","8388":"Ġnotes","8389":"Ġ\"\"Ċ","8390":"(state","8391":"istrict","8392":"Ġlogging","8394":"ĠMal","8395":"DM","8397":"ĠRobert","8398":"elen","8400":"fol","8401":"']))","8402":",b","8403":"ĠJer","8404":"filename","8405":"Ġfan","8406":"ĠCustom","8407":"=\"\"","8408":"ĠDie","8409":"Bundle","8410":".utils","8411":"Ġtrip","8412":"MB","8413":"Ġsoft","8415":"Ġapplicable","8416":"Ġupper","8418":"_al","8420":"Here","8421":"wp","8422":"ĠServer","8423":"ĠClient","8424":"Ġchem","8425":"Scroll","8426":"Ġhighest","8427":"ĠSelect","8428":"Ġ\"@","8429":"ĠWhy","8430":"Sec","8431":"heel","8432":"Operation","8433":"Ġconnected","8434":"irmed","8436":"ĠChe","8437":"Ġforces","8438":"Ġwww","8439":"Root","8440":"ANCE","8441":"Many","8442":"icip","8444":"ĠTor","8445":"ĠPress","8446":"ĠMor","8447":"-line","8448":"uled","8450":"Ġthus","8451":"ĠRegister","8452":"hol","8453":"ĠChinese","8454":"Ġposted","8455":"Ġmagn","8456":"abilities","8457":"Ġdisease","8458":"Ġremains","8459":"ĠProf","8460":"-form","8461":"Ġcin","8462":"organ","8463":"icate","8464":"Ġstress","8465":"]*","8466":"Ġ----------------------------------------------------------------","8467":"_context","8468":"orry","8469":"Ġdied","8470":"mat","8471":"Ġstarts","8473":"Ġruns","8474":"Ġguide","8475":"Ġwarranty","8476":"entials","8477":"dict","8478":"ĠSize","8479":"uler","8480":"Ġresponsible","8482":"Ġcontaining","8483":"ĠPrice","8484":"||","8486":"Ġemp","8488":"(uint","8489":"Ġsuff","8490":"pth","8491":"Ġdefinitely","8493":"Ġmarketing","8494":"ĠWH","8495":"ĠSie","8496":"+=","8498":"Ġconsult","8499":"Ġsigned","8500":"Ġsequence","8501":"lee","8502":"Ġrequirements","8503":"hy","8505":"MT","8506":"sey","8507":"Ġult","8510":"Ġanaly","8511":"Ġdress","8512":"engine","8513":"ĠGreat","8514":"ĠAndroid","8515":"ĠAlex","8516":"mode","8517":"Dictionary","8518":".Date","8520":"VICE","8521":"Ġfamilies","8522":"ĠRussian","8523":"ĠTimes","8524":".call","8525":"$(","8526":"Profile","8527":"Ġfolder","8528":"ches","8529":"Ġlegis","8530":"_row","8531":"unes","8532":"ÙĦ","8535":"agen","8536":"ĠHand","8537":"Iter","8538":"Ġbiggest","8539":"oreach","8540":"Ġpolic","8541":"Ġpermissions","8542":"Ġshowed","8543":"ĠElement","8544":"Ġtopic","8545":"âĢĶâĢĶ","8546":"road","8547":"ĠBank","8548":"record","8549":"Ġpartners","8550":"ĠRef","8551":"essions","8552":"Ġassess","8553":"UST","8554":"ĠParty","8555":"produ","8557":"Ġul","8558":".form","8559":"hide","8560":"copy","8561":"UTF","8563":"čĊčĊčĊ","8564":"ĠLin","8565":"una","8566":"ugar","8567":"Ġadministration","8568":"Ġopening","8569":"Ġscan","8570":"Ġcontinued","8571":"component","8572":".sp","8573":"Ġhappens","8574":"ummy","8575":"ĠPR","8577":"ĠDownload","8579":"di","8580":"Ġwaiting","8581":"_ADD","8582":"Tab","8584":"Ġeconomy","8585":"ĠFrench","8587":"Ġfant","8589":"Holder","8590":"SH","8591":"Ġnumpy","8592":"Ġstreet","8593":"Ġmale","8595":"anging","8596":"ĠBill","8597":"Ġpreviously","8598":"BI","8599":"ĠSecret","8600":"Ġmist","8601":"ĠField","8602":"ups","8603":"ĠProcess","8604":"Ġkept","8606":"Ġtraditional","8607":".i","8608":"amin","8609":"Ġhelps","8610":"Any","8611":"origin","8612":"ilters","8613":"ju","8614":"desc","8615":"ĠAccount","8618":"olly","8619":"Ġfs","8621":"Ġut","8622":"Ġcentral","8623":"(test","8624":".An","8625":"Ġsatisf","8626":"GR","8627":"ĠFull","8628":"Ġheat","8629":"iber","8630":"Ġonto","8631":"mos","8633":"Ġfactory","8635":"aws","8636":"Statement","8637":"(target","8638":"ĉnew","8639":".be","8640":"Ġguest","8641":"Ġmal","8642":"ARY","8643":"Ġreached","8644":"Ġmouse","8645":"Ġchallenge","8646":"ĉdouble","8647":"ĠTem","8648":"Ġterror","8649":"Ġextract","8650":"_TO","8651":"Ġseparate","8652":"Ġmir","8653":"help","8654":"Ġcapacity","8655":"ĠProperty","8656":"kan","8657":"_create","8658":"ĠLight","8659":".parent","8660":"Ġunderstanding","8661":"Ġeasier","8662":"Ġ|=","8663":"Ġenh","8664":"Ġfat","8665":"Ġprotest","8666":"amm","8668":"-of","8669":"ils","8670":"ĠOh","8672":"Ġ$.","8673":"inds","8674":"Ġrelative","8675":"shop","8676":"short","8677":"ĠSand","8678":"uestion","8679":"Ġfear","8680":"/ĊĊ","8681":".context","8682":"Ġschools","8683":"Ġserve","8684":"zone","8685":"_db","8686":"Ġmajority","8687":"example","8688":"Ġlang","8689":"ĉĠĠ","8690":"Register","8691":"endo","8692":"Ġprocessing","8693":"_template","8694":"-user","8695":"Ġeg","8696":"COM","8697":"ĠBlue","8698":"iro","8699":"Ġremote","8700":"ĠIT","8701":"#!/","8702":"Ġredistrib","8703":"raz","8704":"ĠSince","8705":"ĠTur","8706":"Background","8707":"===","8708":"Ġreflect","8711":"Ġwhom","8713":"ĠAre","8714":"Identifier","8715":"ĠThom","8717":"gu","8718":"Ġmonitor","8719":"rm","8720":"Ġpatient","8721":"verter","8722":"Ġgain","8724":"Inst","8725":"Ġdies","8726":"Area","8727":"_filter","8728":"Ġgrat","8729":"Ġreality","8731":"olved","8732":"Contact","8733":"Ġcompliance","8734":"_or","8735":"ĠVar","8736":"dl","8737":"Ġappend","8738":"GER","8739":"(max","8741":"Ġdynamic","8742":"ordinates","8743":"_options","8744":"_column","8745":"Ġbatter","8746":"space","8747":"La","8748":"ĠSource","8749":"/bin","8750":"Ġdos","8751":"ĠBoard","8752":"ĠThread","8753":"ĠAL","8755":"ĠMer","8756":"Ġmiles","8757":"_header","8759":"izz","8760":"Ġbenefit","8762":"(current","8763":"ulo","8764":".default","8765":"ĠDiv","8766":"Ġton","8767":"oth","8768":"ervation","8769":"edom","8770":"Ġbaby","8771":"ceived","8772":".top","8773":"riority","8774":"ĠLocal","8775":"riage","8776":"Ġattacks","8777":"Ġhospital","8778":"Ġfemale","8779":"ĠLogin","8780":"ĠFlor","8781":"Ġchain","8782":"ashion","8783":"Texture","8784":"Save","8785":"Ġfarm","8786":".contains","8788":"Ġknows","8789":"Ġgenerally","8791":"Ġmeant","8792":"encia","8793":"Ġnicht","8794":"Ġcontents","8795":"PM","8797":"(line","8798":"CG","8799":"job","8800":"ĠReal","8801":"uer","8802":"firm","8804":"etro","8805":"\"`Ċ","8806":"Ġspeech","8807":"Ġthr","8809":"Ġwarn","8810":"ĉl","8811":"Ġheavy","8812":"<li","8813":"Ne","8814":"Ġinvestigation","8815":"Math","8817":"Ġchurch","8818":"Ġdespite","8819":"chain","8820":"Ġwhatever","8821":"arian","8822":"fn","8823":"Ġmeta","8824":"})ĊĊ","8825":"UFF","8826":"Ġregarding","8828":"mes","8829":"ĠIntent","8830":"Ġresolve","8831":"poss","8832":"ira","8833":"force","8834":"oice","8835":"Ã¢","8836":"Ġpm","8837":"Ġupdates","8838":"Arr","8839":"ĠÑ","8840":"testing","8841":"Ġtoward","8843":"ëĭ","8844":"Ġlisten","8845":"Ġgoals","8847":"Dr","8848":"Ġrare","8849":"Ġtrail","8850":"Keys","8851":"Cal","8852":"Car","8853":"ĠPeople","8854":"ĉlocal","8855":"classes","8858":"emb","8859":"activ","8860":"Ġprim","8861":"redict","8862":"Ġrad","8863":"æķ°","8865":"Ġspread","8866":"Ġclock","8867":"Ġvir","8869":"Ġefforts","8870":"Ġbranch","8872":"Ġmotor","8873":"Ġamb","8874":"Ġdatetime","8876":"ĠChristian","8877":"ĠAmericans","8878":"full","8879":"Ġfmt","8880":".main","8881":"Ġcaused","8882":"_update","8883":"ĠContent","8884":"ATCH","8885":"Ġbath","8886":"ĠEach","8887":"Ġradio","8889":"uzz","8891":"Ġrestrict","8892":"abin","8893":"ĠLoad","8894":"Ġextension","8895":"Ġessay","8896":"Ġhat","8897":"aviour","8898":"toBe","8899":"\":[","8900":"Ġoffered","8901":"Ġvill","8902":"(double","8903":"æĹ¥","8904":"bc","8905":"_free","8906":"ĠMiss","8907":"ĠBer","8908":"Ġè","8909":"ĠLike","8910":"Ġhelped","8911":".getName","8913":"Ġspirit","8915":"ws","8916":"Ġtherefore","8917":"(params","8918":"_img","8919":"Ġpeace","8922":"Ġminor","8923":"ipes","8924":"ĉdata","8926":"city","8928":".base","8930":"Ġopened","8932":"LY","8933":"nu","8934":".De","8935":"tf","8936":"margin","8938":"Ġpi","8939":"Ġeq","8941":"Fields","8942":"ĠTree","8943":"Ġban","8944":"istan","8945":"ĊĠĠĠĠĠĠĠĠĊ","8947":"Ġproduced","8948":"system","8949":"Mark","8950":"_hash","8951":"Ġbg","8952":"Ġconstit","8953":"ĠLeague","8954":"Ġmission","8955":"_format","8956":"([Ċ","8957":"clusion","8958":"!\"","8959":"Ð·","8960":"break","8962":"Ġther","8963":"Transform","8964":"Ġfootball","8965":"-link","8966":"route","8967":".auth","8968":"Ġbag","8969":"overs","8970":"Ġenabled","8971":"Ġrac","8972":"(I","8973":"CR","8974":"ancing","8975":"Ġmanaged","8976":"_q","8978":"Ġmac","8979":"ĠAuto","8980":"amente","8981":"Ġ'',","8982":".Append","8983":"Ġpin","8984":".item","8985":"acking","8987":"person","8988":"Ġti","8989":".Reg","8990":"Ġhaven","8991":"Ġglass","8993":"ĠSimple","8994":"Print","8995":"Ġsurround","8996":"NO","8997":"ãĢĤĊ","8998":"ĠĠĠĠĠĠĠĠčĊ","8999":"ĠMany","9000":"Ġ\"_","9001":"Ġweekend","9004":"small","9005":"ATED","9006":"Ġplugin","9007":"fields","9008":"ĠInitialize","9009":"oon","9010":"atile","9011":"ye","9012":"Ġvous","9013":"LAG","9014":"Ġolder","9015":"Ġgam","9016":"Ġextremely","9018":"enum","9019":"ĠSET","9021":"Ġtimer","9022":"/index","9023":"Ġcritical","9024":"Rows","9025":"_argument","9026":"Ġexecute","9027":"Ġshowing","9029":"-list","9030":"Role","9031":"typename","9032":"_method","9033":"that","9034":"cher","9035":"ĠâĨ","9036":"XT","9037":"Ġthousands","9038":"ĉn","9039":"Ġresp","9040":"_price","9041":"olut","9042":"Ag","9043":"ĠTwo","9044":"Ġbecomes","9045":"Ġhus","9046":".Use","9047":"theme","9048":"urb","9049":"Ġ/*Ċ","9051":"ARN","9052":"Ġlose","9053":"Lower","9054":"Ġvel","9055":"Ġdefense","9056":"condition","9057":"Ġbes","9058":"Ġdry","9059":"Ġscroll","9061":"IEL","9062":"Ð¾ÑĢ","9063":"ĠRest","9064":"Where","9065":"oods","9066":"ĠJes","9067":"Ġwire","9068":"_INFO","9069":"Ġstrings","9070":"gment","9071":"Ġmatches","9072":"Ġelectric","9073":"Ġexcellent","9074":"ĠCouncil","9075":"idade","9077":"push","9078":"_entry","9079":"Ġtasks","9080":"Ġrich","9081":"sa","9082":"ĠSmith","9084":"Pointer","9085":"pective","9086":"Ġwidget","9087":"ista","9088":"Ġagency","9089":"Ġsich","9090":"ologies","9091":"Ġtrial","9093":".check","9094":"ARK","9095":"ĠonChange","9096":"about","9098":"(val","9099":"Ġplaced","9100":"_NO","9101":"Ġdan","9102":".equal","9103":"ĉĠĠĠĠĠ","9104":"Ġweather","9105":".game","9106":"Ġdestination","9107":"_USER","9108":"iece","9109":"Ġprovider","9110":".last","9111":"plex","9112":"Note","9114":"ĠpÃ¥","9115":"Ġplanning","9116":"attribute","9117":"PRO","9118":"atches","9119":"Ġ<-","9120":"Ġseeing","9121":"Ġcancel","9122":"_ind","9123":".keys","9124":"Ġvisual","9125":"ĠCurrent","9126":"ĠCollege","9127":"ĠRock","9128":"Ġagreement","9129":"ĠStore","9130":"oving","9131":"Ġcorner","9133":"ISE","9134":"Fin","9135":"Ġprotection","9136":"Ġfi","9137":"Play","9139":")}","9141":"-z","9142":"Ġtransition","9143":"igin","9144":"Ġcandidate","9145":"ĠUnion","9146":"_values","9147":"(map","9148":"cle","9149":"Ġtrend","9150":"wide","9151":"aren","9152":"Loc","9153":"UTH","9154":"ĠBay","9155":"Ġsmaller","9156":"ius","9157":"well","9158":"Ġcriminal","9159":"Ġconflic","9160":"bert","9162":"Ġinvestment","9163":"custom","9164":"ĠSession","9166":"ania","9167":"ĠMass","9168":"_EQ","9169":"_NOT","9170":"Ġviolence","9171":"Argument","9172":"_email","9173":"Ġbelong","9174":"_function","9175":"Ġenemy","9176":"ema","9177":"ĠAddress","9178":".empty","9179":"Ġinner","9180":"ĠContact","9181":"Loader","9182":"<input","9183":"ĠCA","9184":"lot","9185":"Ġpictures","9186":"ĠSupport","9187":"_names","9188":"Layer","9189":"ĠClick","9190":"Sum","9191":"Ã¦","9192":"ĠLook","9193":"uous","9194":"Lib","9197":"EP","9198":"hat","9199":"override","9200":"apsed","9201":"Ġlabels","9202":"quis","9203":"ĠStream","9204":"_device","9205":"ĠCommit","9206":"(root","9207":"\"}","9208":".isEmpty","9209":"ĉM","9210":"Ġangle","9211":"ĠBecause","9213":"Ġaim","9214":"Ġstick","9216":"agraph","9217":"answer","9218":"Ġclin","9221":"ĠINT","9222":"Ġstyles","9223":"Ġborn","9224":"Ġscr","9225":"Ġexpand","9226":"Ġraised","9228":"ILL","9229":"------------------------------------------------","9231":">)","9232":"_char","9234":"Ġepisode","9235":"Ġ'_","9236":"ĠEs","9237":"ĠEarth","9238":"ÂłÂł","9239":"UPDATE","9240":"ĠSou","9241":"uis","9242":"types","9243":"Ġmas","9244":"Ġfav","9245":"Ġconstruct","9246":"_rate","9247":"eras","9248":"Ġ|Ċ","9250":"Ġexternal","9251":"Ġapplied","9252":"Ġprefix","9253":"oted","9254":"lers","9255":"Ġcold","9256":"ĠSP","9257":"ĠChurch","9258":"ĠOutput","9259":"losed","9262":"operation","9264":"xFF","9265":".env","9266":"_err","9267":"osh","9268":"Direction","9269":"Cancel","9270":"ĠFrank","9271":"Ġfinding","9272":".)ĊĊ","9274":"ãĥ»","9275":"ses","9276":"Ġcrow","9277":"=='","9278":"Ġsand","9279":"Ġrid","9280":"iture","9281":"Ġentre","9282":"Ġobserv","9283":"Ġvac","9284":"ðŁ","9285":"-T","9286":"Art","9287":"night","9288":".search","9289":"Ġexchange","9290":"Ġdistrict","9291":".os","9292":"Ġdepartment","9293":"Ġdocuments","9294":"Ġcentury","9295":"ĠNext","9296":"Host","9297":"ĠKIND","9298":"Ġsusp","9299":"-P","9300":"rend","9301":".em","9302":"uite","9303":"isters","9304":"(json","9305":"ĠAnn","9306":"wt","9307":"ati","9308":"ĠHTML","9309":"when","9310":"Directory","9311":"Ġshut","9312":"<a","9313":"edy","9314":"Ġhealthy","9315":"Ġtemperature","9316":"ĠGen","9317":"Ġmetal","9318":"Ġsubmit","9319":"ĠDO","9320":"Ġattract","9321":"Ġ{};Ċ","9322":"ĠWord","9323":"Ġll","9324":"Ġseemed","9325":"ko","9326":"IED","9327":"Ġlabor","9329":"Ġasset","9330":"you","9331":"Ġcars","9332":"ĠColumn","9333":"ĠrÃ©","9334":"Ġsquare","9336":"âĢĿ,","9337":"apes","9338":"...Ċ","9339":"Ġthanks","9340":"(props","9341":"Ġtick","9342":"Ġexperiment","9343":"Ġprison","9344":"tree","9345":"-text","9347":"-width","9349":"fast","9350":"-body","9351":"-header","9353":"crete","9354":"ĠTim","9355":"Ġclearly","9356":"ĠRepublican","9357":"Ġjustify","9358":"Ð¸ÑĤ","9359":"ĉĠĠĠĠ","9360":"cache","9361":";//","9362":"Ġpresence","9363":"Ġfactors","9364":"Ġemployee","9365":"]))","9366":"Member","9367":"Ġselector","9368":"bor","9369":"ĠMex","9370":"çļĦ","9371":"utex","9372":"_tag","9373":"ailure","9374":"ĠNet","9375":"Ġreli","9376":"EG","9378":"Ġteen","9379":"loss","9380":"Ġleaving","9382":"Ġbeat","9383":"Ġminute","9385":"Ġredistribute","9386":"Constants","9387":"Ġcancer","9388":"/{","9389":"BL","9390":"Ġspan","9391":"ĠChild","9392":"Center","9393":"Ġearth","9394":"YS","9395":"ĠLevel","9396":"Ġsea","9400":"illing","9401":"ĠĠĠĠĊĠĠĠĠĊ","9403":"ĠEst","9404":"(arg","9407":"cos","9408":"Failed","9409":"swers","9411":"ront","9413":"expr","9414":"ĠLife","9415":"Ġ??","9416":"Ã¶r","9417":"Ġattend","9418":"ĠQue","9419":"Ġspecies","9420":"-D","9421":"Ġaus","9422":"Struct","9423":"Ġadvantage","9424":"oston","9425":"-block","9426":"initial","9428":"Ġtruly","9429":"Ġcompare","9430":"orney","9431":"Ġspect","9432":"Full","9433":"bes","9434":"Ġvisible","9435":"Ġmess","9436":"stances","9437":"Ġcloud","9438":"_version","9439":"Ġfurn","9441":"LOW","9442":"Ġtraffic","9443":"Ġfol","9445":"Ġdeclar","9446":"Ġslot","9447":"ĠExt","9448":"ĠEngland","9449":"ĠUnder","9450":"Ġta","9451":"letter","9452":"Ġofficer","9453":"ĠDonald","9454":"Yes","9455":"_json","9457":"ĠUSE","9458":"mployee","9459":"Ġopinion","9460":"ĠAut","9461":"border","9462":"Ġadvice","9463":"Ġautomatically","9464":"isco","9465":"Ġmm","9467":"aml","9468":"Ġinitialize","9469":"Ġ({","9470":"Ġ;ĊĊ","9471":"Ġgeneration","9472":"Ġbits","9473":"clipse","9474":"Ġunf","9475":"utors","9476":"plt","9477":"Ġdelta","9479":"isis","9480":"<br","9481":"Ġlimitations","9482":"Ġended","9483":"ĠMad","9484":"ilm","9485":"These","9486":"ĠMinister","9487":"Ġchart","9489":"Ġindependent","9490":"Year","9491":"Ġinstr","9492":"Ġtags","9494":"ĠArch","9495":"stop","9496":"Progress","9497":"Ġmi","9498":"Ġlearned","9499":"Ge","9500":"Ġhotel","9501":"SM","9502":"TYPE","9503":"Ġcy","9505":"unately","9506":"limit","9507":"sel","9508":"Ġmovies","9509":"Ġsteel","9510":"oz","9511":"gb","9512":"ĠCamp","9513":"site","9514":"ĠLogger","9517":".right","9518":"ĠCore","9519":"Ġmixed","9520":"step","9521":"Ġputs","9522":"super","9525":"lyph","9526":"ĠColors","9528":".str","9529":"Ġinnov","9530":"Ġdeck","9532":"apers","9533":"](","9534":"continue","9535":"spec","9536":"ĠRoad","9537":"ASH","9538":"iliar","9539":"Ġcontinues","9540":"Ġappoint","9541":"Ġ#Ċ","9542":"ĠVir","9544":"Ġbin","9545":"}\",","9546":"going","9547":"each","9548":"BD","9549":"ĠAccess","9550":"Doc","9551":"ĠManagement","9552":"BER","9553":"asket","9554":".getInstance","9555":"Ġestablished","9556":"socket","9557":"INS","9559":"ĉresult","9560":"READ","9561":"_height","9562":"ĠFont","9563":"Ġ();Ċ","9565":"Ġneighbor","9566":"lor","9567":"Ġgather","9568":"Ġ})ĊĊ","9569":"Ġidentity","9570":"Ġfab","9572":"ĠRoute","9574":"Ã´","9575":"Ġforced","9577":".ĊĊĊĊĊĊ","9579":"_left","9582":"ĠHam","9583":"Ġeventually","9584":"acer","9585":"pub","9586":"Ġtra","9587":"unique","9588":"del","9589":"ĠFlorida","9590":"ĠClean","9591":"xa","9592":"ĠÂ·","9593":"Ġvalidate","9594":"Visual","9595":"Expression","9596":"_func","9597":"member","9598":"ĉh","9600":"ĉG","9601":"napshot","9603":"vin","9604":"])ĊĊ","9605":"owl","9606":"ifies","9608":"ĠContext","9609":"ĠToast","9610":".Key","9611":"Ġofficers","9612":"/n","9613":"sn","9614":"undefined","9615":".items","9617":"amage","9618":"Ġaccounts","9619":"ookie","9620":"Section","9621":"icians","9623":"(is","9624":"[:,","9625":"ĠFrance","9627":"icious","9628":"Ġtok","9629":"Channel","9630":"ĠAD","9632":"Ġtimeout","9634":"reme","9635":"uj","9637":"uclear","9638":"(os","9639":"(\"<","9640":"[Ċ","9641":"fetch","9642":"Ġbal","9643":"Ġguid","9644":"-align","9645":"ĠWrite","9646":"ĠOnce","9649":"Ġpitch","9650":"CF","9651":"bytes","9652":"ĠCommission","9654":"PER","9655":"_response","9656":"ĠLos","9658":"Ġassume","9659":".Request","9661":"_position","9662":"Ġnom","9663":"-term","9664":"Ġremaining","9665":"iostream","9666":"Ġpieces","9667":"apy","9668":"ĠLess","9669":"range","9670":"umbn","9671":"prise","9672":"_option","9673":"Impl","9675":"Ġbusinesses","9676":"Alert","9677":"Ġparties","9678":"ĠContainer","9679":"ĠPrivate","9680":"ĠPlan","9681":"Ġregistered","9682":"Ġjour","9683":"acker","9684":"ÐµÐ½Ð¸","9686":"chat","9687":"sect","9688":"Ġcreation","9689":"olutely","9690":"Ġinstant","9691":"Ġdelivery","9692":"icken","9693":"yes","9694":"ĠFranc","9695":"bling","9696":"enda","9697":"[(","9698":"_range","9699":"ĠĠĠĠĠĠĠĠĠĠĠĠĠĠĠĠĠĠĠĠĠĠĠĠĠĠĠĠĠĠĠĠĠĠ","9700":"Ġschedule","9702":"Ġthank","9703":"xd","9704":"Ġhook","9705":"Ġdocumentation","9706":"Parameters","9707":"Hello","9708":"vt","9709":"Ġarticles","9710":"Ġwest","9711":"defined","9713":"okens","9714":"ĠVAL","9715":".file","9716":"reset","9717":"Ġmys","9719":"]),","9720":"Ġcities","9721":"related","9723":"Ġappeared","9724":"Ġwid","9726":"ĠIns","9727":".entity","9728":"Ġdecre","9729":"ĠLou","9730":"(time","9731":"ĠThank","9733":"Ġmentioned","9734":"ounce","9735":"ĠTry","9736":"ĠWall","9738":"ĠMenu","9740":"ĠEr","9741":"Ġcritic","9742":"ĠYear","9744":"Ġflo","9745":"NN","9746":"ooter","9748":"ĠAff","9749":"\"github","9750":"rooms","9751":"Ġhyp","9752":"global","9753":"Ġavec","9754":"æľĪ","9755":"Ġcompletion","9756":"Ġcond","9757":"onymous","9758":"(temp","9759":"Ġstars","9760":"Ġrelevant","9761":"Ġcovered","9763":"_types","9764":"(bool","9765":"Ġtu","9766":"_exists","9767":"Ġsecure","9768":"Ġstored","9769":"]/","9771":"ĠController","9772":"Ġmigr","9773":"MI","9774":"ĠDen","9775":"Ġannual","9777":"-and","9778":"Ġcrime","9779":"bel","9780":"Ġkitchen","9781":"@g","9782":"_ph","9784":"ĠSocial","9785":"ĠSpecial","9786":"logger","9787":"Ġtail","9788":"Ġunknown","9789":"ded","9790":"Ġapprec","9791":"(db","9792":"cf","9793":"Ġassign","9794":"-out","9795":"ĠMont","9796":"dp","9797":"widget","9798":"Ġstone","9799":"-primary","9801":"Results","9802":"azz","9803":"Ġdaughter","9804":"Ġcurr","9805":"Ġlin","9806":"Ġsouth","9807":"forms","9808":"ĠOUT","9809":"lette","9810":"aks","9812":"ĠEU","9813":"variable","9814":"Ġbrief","9815":"ĠScott","9816":"Ġconference","9817":"anda","9819":"oral","9821":"ORS","9823":"esso","9824":"Ġris","9825":"Ġgender","9826":"estic","9828":"(out","9829":"Ġms","9830":"See","9831":"Ġwilling","9832":"aze","9833":"Ġsports","9834":"Ġyes","9835":"lu","9838":"-pro","9840":"_product","9842":"Ġdriving","9843":"ĠÄ","9846":"uplic","9847":".email","9848":"Ġapprox","9849":"(cl","9850":"Ġwear","9851":"Ġreply","9852":"asset","9853":"Ġice","9854":"Ġtx","9855":"kr","9856":"ĠGermany","9857":"ĠGeorge","9858":"Ġcb","9859":"ĉerr","9860":"Move","9861":"Ġpoly","9862":"voice","9863":"}\"","9864":"Ġanimal","9865":"Av","9866":"ĠLocation","9867":"Ġnative","9868":"][\"","9869":"<double","9870":"Ġmais","9871":",int","9872":"Ġprepar","9873":"Ġinterval","9875":"_ERR","9876":"Ġbug","9877":">\"","9878":"stat","9880":"<span","9881":"Ġfaith","9882":"Ġrom","9883":"prev","9884":"ĠElect","9885":"Find","9886":"Ġgod","9887":"otor","9889":"original","9891":"ĠSenate","9892":"Ġpositions","9893":"Ġweapons","9894":"Ġcoff","9895":"Ġpurposes","9896":"pol","9897":"Ġimpress","9898":"Ġanimals","9900":"(np","9901":"Ġmurder","9902":"Ġ``","9903":"flag","9904":"Ġsolutions","9905":"ĠActive","9906":"Ġbright","9907":".date","9908":"Ġsitu","9909":"ï¼Ī","9910":".ID","9911":"Ġsie","9912":"),čĊ","9913":"akt","9914":"Space","9915":".dat","9916":".indexOf","9917":"han","9920":"Ġcrash","9921":"(/","9922":">=","9923":"Ð±","9924":"iva","9926":"ĠLat","9927":"_ext","9928":"Initialize","9929":".register","9931":"Ġreverse","9932":"_dis","9933":"'][","9934":"Ġprompt","9935":"onto","9936":"ĠJournal","9940":")\"","9942":"lets","9943":"phan","9944":".LE","9945":"Will","9946":"Ġafford","9947":"Ġskill","9948":"-toggle","9949":"NC","9950":"Bind","9951":"TS","9952":"Just","9953":"iteral","9954":"YP","9956":"Ġwind","9957":")):Ċ","9958":"Ġwarning","9959":"ĠWater","9960":"Ġdraft","9961":"Ġcm","9962":"Ġsam","9963":"Ġholding","9964":"zip","9965":"ĠScience","9966":"Ġsupposed","9967":"Gen","9968":"Ġdiet","9969":"<h","9970":"ĠPass","9971":"vi","9972":"Ġhusband","9973":"ï¿½ï¿½","9974":"note","9975":"ĠAbout","9976":"ĠInstitute","9977":"Ġclimate","9979":"Ġnut","9980":"ested","9981":"Ġapparent","9982":"Ġholds","9983":"fi","9984":"news","9985":"CM","9987":"':'","9989":"ping","9990":"Ġsenior","9991":"wa","9993":"_default","9994":"ĠDatabase","9995":"rep","9996":"ESS","9997":"nergy","9999":"_mask","10000":"Ġrise","10001":"Ġkernel","10003":".Q","10004":"Ġoffering","10005":"decl","10006":"ĠCS","10007":"Ġlisted","10008":"Ġmostly","10009":"enger","10010":"Ġblocks","10011":"olo","10012":"Ġgoverning","10014":"Ġconcent","10016":"Ġmb","10017":"Ġoccurred","10018":"Ġchanging","10019":"Scene","10021":"Beh","10022":"\"The","10023":"Ġtile","10024":"ĠAssociation","10025":"ĉP","10026":"alty","10027":"_ad","10028":"odies","10029":"iated","10030":"Ġprepared","10031":"possible","10032":"Ġmort","10034":"Ġignore","10035":"Ġcalc","10036":"Ġrs","10037":"ĠassertEquals","10038":"Ġsz","10039":"ĠTHIS","10040":".\"Ċ","10041":"Ġcanvas","10046":".input","10047":"Ġaux","10048":"Sup","10049":"Ġartist","10051":"_TIME","10053":"etween","10054":"ĠCategory","10055":"Ġ[-","10057":"ĠJul","10058":"Ġring","10059":".ed","10060":"YY","10061":"Let","10063":"Ġflat","10064":"_print","10065":"ĠOTHER","10066":"adian","10067":"Ġchecked","10068":"ele","10069":"Align","10070":"standing","10071":"Ġ[],","10072":"Ġlab","10073":"ucky","10074":"ĠChristmas","10075":"(image","10077":"Ġlots","10078":"Ġslightly","10079":"(final","10080":"erge","10082":"ĠPolice","10083":"ĠRight","10084":"Ġaward","10086":"Ġ{}ĊĊ","10087":"Ġptr","10088":"oves","10089":"icated","10090":"ÐµÐ¼","10091":"Ġmanage","10092":"oliday","10093":"Amount","10096":"Nav","10097":"wrap","10098":"BB","10099":"Ġwatching","10101":"Ġoptional","10104":".Map","10105":"Timer","10106":"ĠAP","10107":"ĠRev","10108":"(o","10109":",c","10110":"umin","10111":"etailed","10112":"ĠHy","10113":"Ġblank","10114":"agger","10115":"ĠSelf","10116":"()[","10117":".make","10118":"earn","10119":"channel","10120":"<pre","10121":"blem","10122":"_password","10123":"_sp","10124":"icing","10125":"ez","10126":"Ġtheory","10127":"ĠTer","10128":",n","10129":"logo","10131":"()))","10132":".handle","10134":"World","10135":"Ġpython","10136":"Ġlif","10137":"Ġtrav","10138":"Ġconven","10139":"company","10140":"ĠClub","10141":"Ver","10143":"Ġzone","10144":"products","10145":"ĠEduc","10146":"Ġverify","10147":"ĠMil","10148":"ono","10149":"]);ĊĊ","10150":"ENCE","10151":"Ġpacket","10152":"Ġcer","10154":"Ġpars","10155":"formed","10156":"Ġoccup","10157":"tre","10158":"Ġexercise","10159":"Day","10160":"_sum","10161":"Ġasking","10162":"aption","10163":"Ġorders","10164":"Ġspending","10165":"ĠERR","10167":"ĠUtil","10168":"âĢľI","10169":"\\'","10170":"?)","10172":"Ġemot","10173":"Ġinfluence","10174":"ĠAfrica","10175":"atters","10176":"Ùħ","10178":"Ġchief","10180":"Ġtom","10181":"cluded","10185":"aped","10186":"Ġpolicies","10187":"-ex","10188":"-tr","10189":"blank","10190":"merce","10191":"Ġcoverage","10192":"Ġrc","10193":"_matrix","10194":"_box","10195":"Ġcharges","10196":"ĠBoston","10197":"Pe","10198":"Ġcircum","10199":"Ġfilled","10200":"Ġnorth","10202":"ĉres","10204":"Ġtermin","10205":"Ġ[âĢ¦","10207":"Ġber","10208":"Ġ\"../../","10209":"retch","10210":".code","10211":"_col","10212":"ĠGovernment","10213":"Ġargv","10214":"ĠLord","10215":"asi","10217":"ĉlet","10219":"Ġdiscussion","10220":"enance","10223":"Ġserved","10224":"ĠPut","10225":"ĉx","10226":"Ġsweet","10227":"Before","10229":".of","10230":"ĠMaterial","10231":"Sort","10233":"igital","10234":"Why","10235":"Ġsust","10236":"Ġç","10237":"abet","10238":"Ġsegment","10239":"Ġ[],Ċ","10240":"ĠMuslim","10242":"cut","10244":"ĠMary","10245":"Ġloved","10246":"Ġlie","10247":"ĠJO","10249":"month","10250":"Ġprime","10251":"ti","10252":"ĠCarol","10253":"Use","10254":"ĠPop","10255":"ĠSave","10257":"execute","10258":"dy","10259":"ĠIran","10260":"_cont","10261":"ĉT","10262":"Ġphase","10264":"week","10265":"Ġhide","10266":"Ġtil","10267":"Ġju","10268":"Custom","10269":"burg","10270":"/M","10272":"Ġquant","10273":"Ġrub","10275":"Ġinstalled","10276":"Ġdump","10277":"Ġproperly","10278":"(List","10279":"Ġdecide","10280":"apply","10281":"Has","10282":"Ġkeeping","10283":"Ġcitizens","10284":"Ġjoint","10285":"pool","10287":"_op","10288":"Ġweapon","10291":"otten","10292":"ĠMS","10293":"Ġ(-","10294":"ĠReview","10295":"Ġexamples","10296":"Ġtight","10297":"!(","10298":"DP","10300":"Ġphotograph","10301":"URI","10302":"Ã©t","10303":"low","10304":"ĠGrand","10306":"Ġmaintain","10307":"Ġnums","10308":"Ġzip","10309":"ials","10310":"ĠGets","10312":"ĠBuffer","10314":"rastructure","10315":"ĠPL","10316":"uen","10317":"obby","10318":"sizeof","10319":"Ġpic","10320":"Ġseed","10321":"Ġexperienced","10322":"Ġodd","10323":"Ġkick","10324":"Ġprocedure","10325":"avigator","10326":"-on","10327":",j","10328":"ĠAlthough","10329":"ĠuserId","10330":"accept","10331":"Blue","10333":"layer","10334":"available","10335":"Ġends","10336":".table","10337":"Ġdataset","10338":"bus","10339":"Ġexplain","10340":"(pro","10341":"ĠCommittee","10342":"Ġnoted","10343":"]:Ċ","10344":"Dim","10346":".\",Ċ","10347":"_source","10348":"ĠWeek","10349":"ĠEdge","10350":"Ġoperating","10351":"Ġeste","10352":"ipl","10353":"agination","10354":"Ġproceed","10355":"Ġanimation","10357":"ĠWatch","10358":"iat","10360":"/A","10361":"Report","10362":"Ġsounds","10365":"Ġbund","10366":"ĉget","10367":".pr","10369":"Ġkid","10370":">ĊĊĊ","10371":"Ġyang","10372":"NotFound","10373":"ÑĨ","10374":"math","10375":"@gmail","10377":"redients","10378":"Ġvent","10379":"avigate","10380":"Look","10381":"Ġreligious","10382":"Ġrand","10383":"rio","10385":"_ip","10386":"uan","10387":"iciency","10388":"ĠChange","10392":"ĠRet","10393":"plan","10394":"Ã©n","10396":"uries","10397":"train","10398":"Definition","10400":"zz","10402":"ĠOK","10403":"_menu","10404":".bl","10405":"_score","10406":"Ġacad","10407":"(System","10408":"Ġrefresh","10409":"'=>$","10411":"amento","10412":"pid","10413":"tc","10414":"Ġtips","10415":"Ġhomes","10416":"Ġfuel","10418":"_helper","10419":"ĠĠčĊ","10420":"ĠRoom","10421":".Close","10422":"_attr","10423":"ĠMount","10424":"ĠEv","10425":"arser","10426":"_top","10429":"ãĢį","10430":"uke","10431":"Ġusage","10432":"aria","10434":"Ġtexture","10435":"Ġconversation","10436":"eper","10437":"Bean","10438":"done","10440":"ĠSecond","10441":"Ġshooting","10442":"_pre","10443":"Components","10444":"Ġ]ĊĊ","10445":"__,","10446":"stitution","10447":".Char","10449":"Ġpresented","10450":"Ġwa","10451":"oker","10452":"-ĊĊ","10453":"iner","10454":"Ġbecoming","10455":"Ġincident","10456":"Att","10457":"Ġrevealed","10458":"forc","10459":"Ġboot","10460":".page","10463":"Photo","10464":"Ġspring","10465":".\",","10466":"ĠDictionary","10468":"Ġlocations","10469":"Ġsamples","10471":"ĠBrown","10472":"Ġstats","10473":"quality","10474":"Ñħ","10475":"-dis","10476":"Ġhelping","10477":"Ġped","10478":"(se","10479":"ĠWho","10480":"alian","10481":"internal","10482":"Ġft","10483":">().","10484":"->{","10485":"Ġmine","10486":"Ġsector","10487":"Ġgro","10488":"Ġopportunities","10490":"Ġmp","10491":"Ġalleged","10492":"Ġdoubt","10493":"Mouse","10494":"About","10495":"_part","10496":"Ġchair","10497":"Ġstopped","10498":"loop","10500":"Ġapps","10501":"ansion","10502":"Ġmental","10503":"ĠĠĠĠĠĠĠĠĠĠĠĠĠĠĠĠĠĠĠĠĠĠĠĠĠĠĠĠĠĠĠĠĠĠĠĠĠĠĠĠĠ","10504":"FR","10505":"Ġdefend","10506":"care","10507":"Ġideal","10509":"urface","10510":"Ġele","10511":"ulator","10512":"ĠRights","10514":"Ġfunds","10515":"Ġadapt","10517":"Ġdeploy","10518":"opts","10519":"Ġvalidation","10520":"Ġconcerns","10521":"uce","10522":".num","10523":"ulture","10524":"ila","10525":"Ġcup","10526":"Ġpure","10530":"asm","10531":"MO","10532":"Ġcs","10533":"Ġstores","10535":"Ġcommunication","10536":"mem","10539":"_right","10541":"Sheet","10542":"Ġidentify","10543":"enerated","10544":"ordered","10545":"Ġ\"[","10546":"Ġswe","10547":"Condition","10548":"ĠAccording","10549":"Ġprepare","10550":"Ġrob","10551":"Pool","10552":"Ġsport","10553":"rv","10554":"ĠRouter","10555":"Ġalternative","10556":"([]","10557":"ĠChicago","10558":"ipher","10559":"ische","10560":"ĠDirector","10561":"kl","10562":"ĠWil","10563":"keys","10564":"Ġmysql","10565":"Ġwelcome","10566":"king","10567":"ĠManager","10568":"Ġcaught","10569":")}Ċ","10570":"Score","10572":"Ġsurvey","10573":"hab","10575":"ADER","10576":"Ġdecor","10577":"Ġturns","10578":"Ġradius","10579":"errupt","10581":"Ġmel","10582":"Ġintr","10583":"(q","10584":"ĠAC","10585":"amos","10586":"MAX","10587":"ĠGrid","10588":"ĠJesus","10589":"ĠĠĠĠĠĠĠĠĠĠĠĠĠĠĠĠĠĠĠĠĠĠĠĠĠĠĠĠĠĠĠĠĠĠĠĠ","10590":".DE","10591":"Ġts","10592":"Ġlinked","10593":"free","10595":"Ġ/**čĊ","10596":"Ġfaster","10597":"ctr","10598":"_J","10599":"DT","10600":".Check","10601":"Ġcombination","10602":"Ġintended","10603":"-the","10604":"-type","10605":"ectors","10606":"ami","10607":"uting","10608":"Ġuma","10610":"UCT","10611":"Ap","10612":"ĠRandom","10613":"Ġran","10614":".sort","10615":"Ġsorted","10616":".Un","10617":"_PER","10618":"itory","10619":"Ġpriority","10620":"ĠGal","10621":"ĠOld","10622":"hot","10623":"ĠDisplay","10624":"(sub","10626":"_Y","10627":"ĠCare","10629":"Kind","10630":"_handle","10631":",,","10632":"rase","10636":"Ġentered","10637":"gers","10638":"Ġich","10639":"(start","10640":"/app","10641":"Ġbrother","10642":"Memory","10645":"prec","10646":"Ġnavigation","10649":"Detail","10650":"Ġaudience","10651":"Ġdur","10652":"Ġcluster","10653":"unched","10655":"Ġcomfortable","10656":".values","10657":"ĠTotal","10658":"Ġsnap","10659":"Ġstandards","10660":"Ġperformed","10661":"hand","10662":"(\"@","10664":"Ġphil","10665":"ibr","10666":"trim","10667":"Ġforget","10668":"Ġdoctor","10670":"icons","10671":",s","10672":"ĠOp","10673":"Sm","10674":"Stop","10675":"ĉList","10680":"Person","10683":"ĠĠĠĠĠĠĠĠĠĠĠĠĠĠĠĠĠĠĠĠĊ","10684":"ĠCentral","10685":"ICK","10687":"Ġputting","10688":"Ġmd","10689":"ĠLove","10690":"Program","10691":"Border","10692":"oor","10693":"Ġallowing","10694":"after","10695":"Ġentries","10696":"ĠMaybe","10697":"]).","10698":"ĠShort","10699":")\\","10700":".now","10701":"friend","10702":"Ġprefer","10704":"osis","10706":"Ġskip","10707":"Ġcompetition","10708":"_match","10709":"lications","10712":"Ġals","10713":"\"We","10714":"_eq","10715":"lan","10716":"_search","10717":"ĠMusic","10718":"asis","10719":"Ġbind","10720":"ĠIsland","10721":"rum","10722":"(E","10723":"Ġseat","10724":"Video","10725":"Ġack","10726":"reek","10727":"={()","10728":"Ġrating","10729":"Ġrestaurant","10730":"DEX","10732":"pping","10733":"uality","10734":"Ġleague","10735":"Ġfocused","10736":"apon","10740":"Ġabsolute","10741":"(query","10742":"Ġtells","10743":"Ang","10744":"Ġcommunities","10745":"Ġhonest","10746":"oking","10747":"Ġapart","10748":"arity","10749":"/$","10750":"_module","10751":"ĠEnc","10752":".an","10754":"Cre","10755":"Ġshock","10756":"ĠArab","10758":"/re","10759":"Ġretrie","10760":"ycler","10761":"isa","10762":"ĠOrgan","10764":"Ġí","10765":"ĠBAS","10767":"Ġpossibly","10769":"ĠJapanese","10770":"Ġcraft","10771":"ĠPlace","10772":"Ġtalent","10773":"Ġfunding","10774":"Ġconfirmed","10775":"Ġcycle","10776":"/x","10777":"GE","10778":"Ġhearing","10779":"Ġplants","10780":"Ġmouth","10781":"pages","10782":"oria","10783":"ĠRemove","10784":"_total","10785":"Ġod","10786":"ollapse","10787":"door","10788":"Ġbought","10789":"Ġaddr","10790":"ARCH","10791":"_dim","10792":"dden","10793":"Ġdecades","10795":"Ġversions","10796":"fire","10797":"Ġmoves","10798":"fb","10799":"Ġcoffee","10800":".connect","10801":"ĠRow","10802":"Ġschema","10803":"Scope","10804":"-Type","10805":"Ġfighting","10806":"Ġretail","10807":"Ġmodified","10808":"TF","10810":"nie","10811":"_command","10812":"stone","10813":"ĠÑĤ","10815":"Ġbond","10816":"ĠDevelopment","10817":"Ġpt","10819":"plet","10820":"Ġidentified","10821":"cpp","10822":"Ġcoding","10823":"oked","10824":"ĠMaster","10826":"Ġresidents","10827":"redit","10828":"ĠPhoto","10829":"=-","10830":"unte","10831":"ateur","10832":"_STATE","10833":"ĠSing","10834":"Ġsheet","10835":".val","10836":"orse","10837":"Ġhers","10838":"Ġdetermined","10839":"Common","10840":"Ġwed","10841":"_queue","10842":"PH","10843":"ĠAtl","10844":"cred","10846":"Ġmes","10847":"Ġadvanced","10849":".Sh","10850":"Go","10851":"kill","10852":"fp","10853":"_settings","10854":"Ġpal","10855":"Ġtruck","10856":"Ġcombined","10857":"Ġ\"${","10859":"Ġjoined","10860":"ĠJose","10861":"ĠCup","10862":"uns","10863":"estival","10865":"Ġbroken","10866":"Ġmarriage","10867":"ĠWestern","10868":"Ġrepresents","10869":"ĠTitle","10871":".Ass","10872":"ongoose","10873":"iento","10875":"Ġabsolutely","10876":"Ġsmooth","10878":"ĠUnless","10879":"Word","10880":"Ġmerge","10881":"igan","10882":"ĠVol","10883":"Ġnn","10887":"Ġseeking","10888":"Single","10889":".this","10890":"Ġkom","10891":"bound","10892":";\"","10894":"_df","10895":"Ġinjury","10896":"(H","10897":"Ġissued","10898":"_END","10899":":self","10900":"Ġpatch","10901":"Ġleaves","10902":"Ġadopt","10904":"ãĢĲ","10905":"Ġexecutive","10907":"]))Ċ","10908":"Ġnu","10909":"outing","10910":"cluding","10911":"-R","10913":"Ġsubstant","10914":"avax","10915":"ĠBUT","10916":"Ġtechnical","10917":"Ġtwice","10918":"ĠmÃ¡s","10919":"Ġunivers","10920":"yr","10921":"Ġdrag","10923":"Ġsed","10924":"Ġbot","10925":"ĠPal","10926":"ĠHall","10930":"notation","10931":"_files","10933":"_flag","10934":"[name","10935":"Ġresolution","10936":"Ġbott","10937":"(\"[","10938":"ende","10939":"(arr","10940":"Free","10942":"ĠDistrict","10944":":-","10946":"ĠJo","10947":"ĠĠĠĠĠĊ","10948":"ĠRiver","10949":"_rows","10950":"Ġhelpful","10951":"Ġmassive","10952":"---Ċ","10953":"Ġmeasures","10954":"ĠRuntime","10955":"Ġworry","10956":"ĠSpec","10957":"ĉD","10958":"ãĢĳ","10960":"Ġworse","10961":"(filename","10962":"Ġlay","10963":"Ġmagic","10964":"ĠTheir","10965":"oul","10967":"ĠWhere","10968":"Ġsudden","10969":"Ġdefe","10970":"Ġbinding","10971":"Ġflight","10973":"ĠWomen","10974":"ĠPolicy","10975":"Ġdrugs","10976":"ishing","10978":"ĠMel","10979":"peat","10980":"tor","10981":"Ġproposed","10982":"Ġstated","10984":"Ġeast","10985":"ĠCONDITION","10986":"_desc","10987":"Ġwinning","10989":"Mapper","10990":"ĠPan","10991":"ĠAnge","10993":"Ġcopies","10994":"LM","10996":"åį","10997":"Ġdictionary","10998":"Seg","10999":"elines","11000":"ĠSend","11001":"Ġiron","11002":"ĠFort","11004":"Ġdebate","11006":"eq","11007":"acher","11008":"lf","11011":"ÄŁ","11012":"ĠMen","11013":"Ġtrim","11015":"Ġ!!","11016":"Ġpad","11017":"Ġfollows","11018":"\"][\"","11019":"requ","11020":"ĠEp","11022":"(img","11023":"eto","11024":"('\\","11025":"Services","11026":"umbnail","11027":"_main","11029":"fortunately","11030":"Ġwindows","11031":"Ġplane","11032":"ĠConnection","11033":".local","11034":"uard","11035":"}\\","11036":"==\"","11037":"andon","11038":"ĠRoy","11039":"west","11040":"iginal","11042":"itz","11043":"'):Ċ","11044":"ĠPeter","11045":"Ġtough","11046":"Ġreduced","11047":"Ġcalculate","11048":"Ġrapid","11049":"customer","11050":"Ġefficient","11051":"Ġmedium","11052":"Ġfell","11053":".ref","11054":"ĠCas","11055":"Ġfeedback","11056":"Speed","11057":"(output","11058":"aje","11059":"Ġcategories","11060":"Ġfee","11061":"};","11062":"Ġdeleted","11063":"reh","11064":"Ġproof","11065":"Desc","11066":"Build","11067":"Ġsides","11069":"-%","11070":"ĠĠĠĠĠĠĠĠĠĠĠĠĠĠĠĠĠĠĠĠĠĠĠĠĠĠĠĠĠĠĠĠĠĠĠĠĠĠ","11071":"Ø±","11072":".match","11073":"Ð»Ð¸","11074":"Ġfeels","11075":"Ġachieve","11076":"Ġclim","11077":"_ON","11078":"ĠCD","11079":"Ġteacher","11080":"_current","11081":"bn","11083":"isting","11084":"Enable","11087":"Ġsock","11088":"Ġplays","11089":"Ġdiscount","11090":"ĠKE","11091":"ĠDebug","11092":"Fore","11093":"ĠIraq","11094":"Ġappearance","11095":"Mon","11096":"Ġstyled","11097":"ĠHuman","11098":"iot","11099":"ĠHistory","11100":"Ġsac","11101":"ĠCollection","11102":"Ġrecommended","11104":"Ġorganizations","11105":"Ġdiscovered","11106":"cohol","11107":"adas","11108":"ĠThomas","11109":"May","11110":"Ġconserv","11111":"Ġdomin","11112":"ĠFollow","11113":"ĠSection","11114":"ĠThanks","11115":"Username","11116":"Ġrecipe","11117":"Ġwonderful","11118":".sleep","11119":"_if","11120":"ĉĊĉĊ","11121":"orno","11122":"Ġru","11123":"_target","11124":".\"\"","11126":"EventArgs","11127":"Ġinputs","11128":"Ġfif","11129":"Ġvision","11130":"cy","11131":"ĠSeries","11133":"Ġtrading","11134":"Ġmarker","11135":"Begin","11136":"Ġtypically","11137":"Ġcauses","11140":"Ġdetect","11141":"country","11142":"!\");Ċ","11144":"appy","11146":"('<","11147":"\"=>","11148":"ĠLE","11149":"reader","11150":"Ġadministr","11151":"Ãµ","11153":"Ġfashion","11155":"izar","11156":"Ġdisable","11157":"Ġsuc","11158":"ĠLive","11159":"issue","11160":"Ġmetadata","11161":"flags","11162":"ĠðŁ","11163":"Ġcommitted","11164":"Ġva","11165":"Ġrough","11166":"Ġ'''Ċ","11167":"Ġhighlight","11169":"VO","11170":"Ġencoding","11171":"-Z","11174":"Ġrain","11175":"reatest","11176":"ĠEND","11178":"Ġcandidates","11179":"Ġsav","11180":".Empty","11181":"Ġdecisions","11182":"Ġcollabor","11183":"ridge","11184":"feed","11185":"ression","11186":"Ġpersons","11187":"VM","11188":"ega","11189":"_BIT","11190":"According","11191":"acked","11192":"Ġdollars","11193":"_loss","11194":"ĠCost","11195":"}\"Ċ","11196":"Notification","11198":"Ġauthority","11199":".rec","11200":"Ġspokes","11201":"ĠToday","11202":"istant","11203":"ĠHead","11204":"âĢĿ.","11206":"cean","11207":"culate","11208":"Ġven","11209":"However","11210":"_arr","11211":"Ġtokens","11212":"Graph","11213":"ĠJud","11214":"ĠVirgin","11215":"ĠSerial","11216":"unning","11217":"Mutable","11218":"agers","11220":"Ġdeveloping","11221":"Ġinstructions","11222":"Ġpromise","11223":"Ġrequested","11225":"/\"","11226":"ĠIcon","11227":"uilt","11228":"-day","11229":"Ġintelligence","11231":"ĠObservable","11232":"ĠHard","11233":"Bool","11236":"Ġselling","11237":"CI","11238":"AGES","11239":"tle","11240":"bur","11242":"RY","11243":"Ġbigger","11244":"Ġrat","11245":"Ġfamous","11246":"Ġtypename","11247":"Ġexplained","11248":"}}Ċ","11249":"Ġnuclear","11250":"-N","11251":"Ġcrisis","11252":"ĠEnter","11253":"Ġanswers","11255":"/pl","11256":"Ġsequ","11257":"_next","11258":"mask","11259":"Ġstanding","11260":"Ġplenty","11261":"ĠCross","11262":"ĉret","11263":"dro","11264":"ĠCast","11267":"icio","11268":"ĠMike","11269":"Decimal","11270":"addComponent","11271":"Len","11272":"Ġcock","11273":"Ġ#{","11274":"URN","11276":"Ġauthorities","11278":"-H","11279":"Bottom","11280":"_qu","11282":"esterday","11283":"Dispatch","11284":"since","11285":"Ġfamiliar","11286":",i","11287":"VC","11288":"Ġment","11289":",C","11290":"Ġfreedom","11291":"Ġroutes","11292":"ĠBuy","11293":"Ġcommands","11294":"Ġmesh","11295":"/C","11296":"ĠSettings","11297":"-style","11298":"Ġwitness","11299":"Ġcle","11300":"Ġunion","11302":"aret","11303":"Ġthoughts","11304":"Ġ----","11305":"_process","11306":"_us","11307":"ingly","11309":"Touch","11310":"ĠÐ¼","11311":"_open","11312":"ĠVec","11313":"Ġreward","11314":".Click","11315":"/:","11316":"Ġnie","11317":"Changes","11318":"Month","11319":"ï¼Ł","11320":"Ġexecution","11321":"Ġbeach","11322":"(Integer","11323":"ĉa","11326":"Ġabort","11327":"ĠSingle","11329":"Ġdp","11331":"ĠMa","11332":".Rows","11333":"ĠPet","11334":"%)","11335":"rand","11337":"Rule","11338":"Ġhel","11339":"RITE","11340":"Ġquiet","11341":"Ġratio","11343":"osoph","11344":"ĠIL","11345":"Ġadvent","11346":"cap","11350":"Ġours","11351":"ĠJohnson","11352":".K","11353":"_delete","11354":".q","11355":"ĉstr","11356":"/common","11358":"ĠPDF","11359":"acts","11361":"ĠQuery","11362":".response","11363":"ĠGirl","11364":"Ġprocesses","11365":"<Integer","11366":"imo","11367":"Ġadds","11368":"Ġentirely","11369":"Ġwash","11371":"Ġanimated","11372":"Ġprofit","11373":"encing","11374":"/S","11375":"ĠSym","11376":"Ġmanual","11377":"Download","11379":"Ġmotion","11381":"-bottom","11385":"Ġera","11386":"Ġho","11387":"ĠJim","11388":"quir","11390":"Ã¡n","11391":"DER","11392":"Ġexpensive","11394":"Bounds","11395":"Well","11396":"ĠDemocratic","11397":"ĠâĨĴ","11400":"names","11401":"ĠVi","11402":"Ġisinstance","11404":"Ġ*=","11406":"Ġdangerous","11407":"[p","11408":"OME","11409":"Other","11411":"Points","11413":"Ġcurrency","11414":"Ġpercentage","11416":"Ġclassic","11418":"ĠMO","11419":"FE","11420":"Idx","11421":"await","11422":"ĠÃ¨","11423":"Ġaccident","11424":"Ġvariant","11425":"Ġmyst","11426":"ĠLand","11427":"ĠBre","11428":"Ġharm","11429":"ĠAcc","11430":"Ġcharged","11431":"iones","11432":"Visibility","11433":"arry","11434":"ĠLanguage","11435":"Ġwalking","11436":"\".ĊĊ","11437":"ifer","11438":"Ġleadership","11440":"ynam","11441":"Ġtimestamp","11442":"ipt","11443":"ĠHas","11445":"ĠIts","11446":"Ġlistener","11448":"_description","11449":"Ġexperiences","11450":"Ġcreates","11451":"RS","11452":"cart","11453":"black","11454":"Ġchoices","11455":"war","11456":"Ġ'''","11457":"Ġordered","11458":"Ġevening","11459":"Ġpil","11460":"Ġtun","11461":"ĠBad","11462":"(app","11463":"random","11464":"Ġexplicit","11465":"Ġarrived","11466":"Ġfly","11468":"-mail","11469":"Ġlists","11470":"Ġarchitect","11471":"ĠPay","11472":"Ġds","11473":"ĠSol","11474":"Ġvehicles","11476":"-com","11477":"Ġking","11478":"_equal","11479":"ĠHelp","11480":"Ġabuse","11481":"--;Ċ","11482":"Ġextr","11483":"Ġchemical","11484":"ä¿","11485":"Ġorient","11486":"Ġbreath","11487":"ĠSpace","11488":"(element","11489":"wait","11490":"DED","11491":"igma","11492":"Ġentr","11493":"Ġsob","11494":"-name","11495":"Ġaffected","11496":"ika","11497":"Ġcoal","11498":"_work","11499":"Ġhundreds","11500":"Ġpolitics","11501":"subject","11502":"Ġconsumer","11503":"ANGE","11504":"Ġrepeated","11505":"Send","11506":"Ġ#[","11507":"Ġprotocol","11508":"Ġleads","11509":"useum","11510":"Every","11511":"Import","11512":"(count","11513":"Ġchallenges","11514":"Ġnovel","11515":"Ġdepart","11516":"bits","11517":".Current","11518":"Ġ`${","11519":"oting","11520":"(\\","11521":"Ġcreative","11522":"Ġbuff","11523":"Ġintroduced","11525":"modules","11526":"Are","11527":"-doc","11528":"language","11529":"_cache","11530":"Ġtod","11532":"omething","11533":"Ġhun","11535":"aters","11536":"Intent","11537":"Ġimplemented","11538":"ĠCase","11539":"Children","11540":"Ġnotification","11542":"Wrapper","11543":"Objects","11544":"tl","11547":".row","11548":"Ġforg","11549":"Ġpermit","11550":"Ġtargets","11551":"ĠIF","11552":"Ġtip","11553":"sex","11554":"Ġsupports","11555":"Ġfold","11556":"photo","11558":"Ġgoogle","11560":"Ġsharing","11561":"Ġgoods","11562":"vs","11563":"ĠDan","11564":"Rate","11565":"ĠMartin","11566":"Ġmanner","11567":"lie","11568":".The","11569":"Internal","11572":"RIGHT","11573":"Ġ'{","11574":"Ġcontrols","11575":"Mat","11576":"Ġmand","11577":"Ġextended","11578":"Ok","11579":"Ġembed","11580":"Ġplanet","11581":"ĠNon","11582":"-ch","11583":")\",","11585":"Ġbelieved","11586":"ĠEnvironment","11587":"ĠFriend","11588":"-res","11589":"Ġhandling","11590":"nic","11591":"-level","11592":"scri","11594":"BE","11595":"ungen","11596":"Ġalter","11597":"[idx","11598":"Pop","11599":"cam","11600":"Ġ(((","11601":"Ġshipping","11602":"Ġbattery","11604":"MC","11605":"Ġimpl","11606":"otation","11607":"ĠLab","11609":"ĉname","11610":"ĠGames","11611":"ray","11612":"Extra","11613":"Two","11614":"(player","11615":"ĠLes","11616":"Â°","11618":"Ġjourney","11619":"eting","11622":"çĶ¨","11623":"Ġdin","11624":"Ġperman","11625":"Ġsolve","11626":"Ġlaunched","11627":"Ġnine","11628":"Ġsending","11629":"Ġtelling","11630":".password","11631":"ĠMatrix","11632":"eric","11633":"Ġgrab","11634":".u","11635":"ĠLibrary","11636":"Ġdebt","11637":"INK","11639":"Ġfrequency","11640":".ad","11642":"Ġnegot","11643":"ĠAfrican","11645":"Å¡","11646":"Global","11647":"Ġexperts","11649":"Ġdepending","11650":"gray","11651":"Ġjudge","11652":"Ġsentence","11653":"losure","11654":"Ac","11655":"Ġtrace","11656":"Edge","11657":"Ġfriendly","11658":"Ġconcerned","11659":"blog","11660":"Ġclaimed","11661":"}'","11662":"integer","11663":"_tree","11664":"ĉcontinue","11665":"xi","11666":"Ġaccepted","11667":"_one","11668":"ĠEducation","11670":"gon","11671":"appoint","11672":"outs","11673":"Ġmining","11674":"Ġsongs","11675":"Ġherself","11676":"Ġgranted","11677":"Ġpassion","11678":"ĠLake","11679":"Ġloan","11680":"uent","11681":"chant","11682":"Ġdetailed","11683":"except","11684":"_cmd","11685":"ĠHE","11686":"Related","11687":"zt","11689":"Ġspecifically","11690":"Static","11691":"Ġcarried","11692":"ANS","11693":"\\\":","11694":"Created","11695":"Ġcul","11696":"]-","11697":"_api","11698":"FP","11699":"Ġsitting","11700":"Ġ\"\")","11702":"ĠEqu","11703":"Ġassault","11704":"kins","11705":"ancer","11706":"ogen","11707":"Ġvoters","11708":"ĠProt","11710":"ãĥ¼","11712":"bsites","11713":"oster","11714":"-menu","11715":"Ġarms","11718":"avity","11719":"Ġvul","11721":"Ġhousing","11722":"Ġbear","11723":"_iter","11724":"pired","11725":"Ġmarkets","11726":"ĠStudent","11727":"Ġticket","11728":"Ġmillions","11729":"flater","11730":")=","11731":"Ġrecover","11732":"ĠForce","11733":"ĠBoth","11734":"Ġvictim","11735":"ĠDisc","11736":"report","11737":"Ġfourth","11738":"ĠAssembly","11739":"/user","11742":"Ġath","11743":"Ġ([","11744":"Ġchannels","11745":"ĠJustice","11746":"choice","11748":"exec","11750":"Ġelem","11751":"_le","11752":"Ġresponsibility","11753":"ĠTw","11755":"Ġelseif","11756":"Ġfo","11757":"asts","11758":"Ġtreated","11759":"sen","11760":"ĠVict","11763":"Ġast","11766":"ĠStandard","11767":"ĠPrem","11768":"updated","11769":"ivalent","11770":"Ġassets","11771":"_temp","11772":"Ġinterests","11773":"Ġhardware","11774":"ĠRom","11775":"ĠShare","11776":"Ġ''Ċ","11777":"Ġ*,","11778":"ĠTake","11779":"ĠImages","11780":"_CHECK","11781":"(typeof","11782":"ĠJun","11783":"\\<^","11785":"Ġworst","11786":"ymbols","11787":"ĉĉĉĠĠĠ","11788":"Ġdrivers","11789":"ĠDocument","11790":"eno","11791":"ĠTechnology","11792":"Ġapproved","11793":"umps","11794":"Ġsnow","11795":"formance","11797":"uits","11798":"ÙĨ","11799":"Ġdifferences","11800":".Visible","11802":"ĠPs","11804":"Ġtodo","11805":".',Ċ","11806":"Ġsel","11807":"urers","11808":"invalid","11809":"Ġtweet","11810":"VEL","11811":"Ġresearchers","11813":"ĠRO","11814":"Ġpel","11816":"Ġillegal","11819":"lg","11820":"_MIN","11821":"Ġhero","11822":"final","11823":"Ġpp","11824":".Le","11825":"Ġci","11827":"Ġsuggested","11829":"aching","11830":"ĠRo","11831":"ĠProperties","11832":"ĠSi","11833":"Ġbuying","11834":"Ġmu","11835":"Ġlands","11836":"ifiers","11839":"Ġholder","11840":"ĠSon","11841":"Ġsympt","11842":".route","11843":")?","11845":"Ġfort","11846":"Ġcasino","11847":"_category","11848":"Ġforum","11849":"prefix","11850":"apture","11851":"Tube","11852":"ems","11853":"imize","11854":"Ġnue","11855":"aus","11856":"course","11858":"()),","11859":"Advertis","11860":"INGS","11862":"ĠKorea","11863":"pling","11864":"Ġworker","11866":"hal","11867":"ĠRichard","11868":"Elements","11869":"ĉĉĉĠ","11870":"star","11871":"Ġrelationships","11872":"Ġcheap","11874":"ĠXML","11875":",&","11876":"ĠLouis","11877":"Ġride","11879":"Ġchunk","11880":"[s","11881":"_OUT","11882":"Ġchosen","11883":"_[","11884":"/(","11885":"ĠJeff","11886":"_sl","11887":"priv","11888":"ĠCanadian","11889":"Ġunable","11890":"_FLAG","11891":"Ġnos","11892":"high","11893":"Ġlift","11894":"fun","11895":"(){","11896":"elly","11898":"_as","11900":"Ġradi","11902":"ĠAngeles","11903":"ĠSpan","11904":"_instance","11905":"itors","11906":"Ġmigration","11907":"AK","11908":"Oh","11909":"Â®","11910":".selected","11912":"Ġadvance","11913":"ĠStyle","11915":"ection","11917":"pio","11918":"rog","11919":"Ġshopping","11920":"ĠRect","11922":"OU","11923":"ĉarray","11924":"Ġsubstantial","11926":"Ġpromote","11927":"IEW","11929":"Ġsigns","11930":"/.","11931":"Ġletters","11932":"Board","11934":"\"\\","11935":"ĠJones","11936":"Ġvertex","11937":"Ġja","11938":"Ġaffili","11939":"Ġwealth","11940":"ĉdefault","11941":"Ġsignificantly","11942":"Ġec","11943":"Ġxs","11944":"actual","11945":".per","11946":"_step","11947":"anvas","11948":"mac","11949":"Ġtransl","11950":"ĠĠĠĠĠĠĠĠĠĠĠĠĠĠĠĠĠĠĠĠĠĠĠĠĠĠĠĠĠĠĠĠĠĠĠĠĠĠĠĠĠĠĠĠĠĠĠĠĠĠĠĠĠĠĠĠĠĠĠ","11951":"Iterator","11952":"Ġoch","11954":"ĠDuring","11955":"ĠDEFAULT","11956":"Ġtill","11957":"Ġsignature","11958":"Ġbird","11959":"ĠOl","11960":"ĠIr","11964":"Ġelev","11965":"Ġmt","11966":"ĠNav","11967":"Ġrelax","11968":"Ġplate","11970":"(date","11971":".not","11972":"Ġgrade","11974":"?\"ĊĊ","11975":"iences","11976":"High","11977":"ĠDIS","11979":"QUI","11980":"Ġnoise","11981":"aux","11982":"ĠUP","11983":"osa","11985":"Ġ))","11986":"ocom","11987":"_OFF","11990":".eclipse","11991":",d","11992":"ĠDraw","11993":"Ġ\"(","11994":"Ġvisited","11995":"ĠâĪ","11996":"Ġsucceed","11997":"Ġimpossible","11998":"aire","11999":"ĠTurn","12000":"Ġdish","12002":"Ġsensor","12004":"aba","12005":"Ġsurg","12007":"Ġfp","12008":"_an","12009":"-J","12010":"-G","12011":"ĠJob","12012":"Convert","12013":"ĠKEY","12014":"Ġauthors","12018":"flex","12019":"Ġsoc","12020":"Ret","12021":"Ġsalt","12022":"ĠâĢ¦ĊĊ","12023":"ĠClear","12024":"(page","12025":"-danger","12026":"Ġrooms","12027":"conv","12028":"#{","12029":".op","12030":"ĠArea","12031":"_SC","12032":"hen","12033":"Ġbegins","12034":"-y","12035":"Ġexcited","12036":"Ġignored","12037":"Ġbonus","12038":"student","12039":"ĠMember","12040":"Ġrelatively","12041":"ĠLow","12042":"ĠProdu","12043":"ateway","12044":"posure","12045":"Ġthick","12046":"aniel","12048":"ĠCrush","12049":"Extension","12050":"Il","12051":"eed","12053":".im","12054":".Items","12055":"Ġconflict","12057":"ĠonCreate","12058":"uv","12059":"iser","12060":"Ġwave","12061":"Mar","12062":"ĠCommunity","12063":"iche","12064":"ĠNothing","12065":"[m","12066":"ĠLee","12067":"riends","12068":"Ã¨re","12069":"!!!","12070":"anz","12071":".result","12072":"ĠSK","12074":"Ġdemocr","12076":".exists","12077":"\"It","12078":"(options","12079":"razy","12080":"aser","12083":"_ass","12084":";}Ċ","12086":"inecraft","12087":"Warning","12088":"argo","12090":"ĠInstead","12091":"ĠUsing","12092":"Self","12094":"Ġspeaking","12095":"ĠParis","12098":"ĠFood","12100":"ĠBi","12101":".Start","12102":"ĠIB","12103":"Ġuniversity","12105":".product","12107":"etc","12108":"rical","12109":"Ġ>>>","12110":"books","12111":"Ġalgorithm","12112":"Ġ'__","12114":"Ġnumerous","12115":"Share","12116":"Have","12118":"Ġprove","12120":"health","12121":"ÐµÐ»","12122":"Ġdecimal","12123":"Ġcommission","12124":"scription","12126":"Ġsummary","12127":"atted","12128":"Ġcloser","12129":"finished","12130":"()){Ċ","12131":"ĠWood","12132":"_fields","12133":"ku","12134":"_items","12135":"Flag","12136":"Ġconfidence","12137":"ĠFederal","12140":"Ġvertical","12141":"Ð¹","12142":"Ã¨s","12144":"_manager","12145":"()))Ċ","12146":"IDE","12147":":\",","12148":"__Ċ","12149":"ĠWay","12150":"ÑĪ","12151":"Temp","12152":"ĠSTR","12153":"ritten","12154":"Sync","12155":"ĠAV","12156":"ĠCEO","12157":"ĠGuid","12158":"Ġenvironmental","12159":"Ġcorresponding","12160":"ĉconsole","12161":"Ġjustice","12162":"ĠJS","12163":"Ġlived","12164":"gar","12165":"ĠGraph","12166":"ĠStat","12167":"ĠiPhone","12168":".al","12170":"Ġoccur","12171":"Ġthreshold","12173":"REG","12175":"Meta","12176":"Å¾","12177":"Ġcum","12179":"Ã«","12180":"Ġobtained","12181":"Ġcomplaint","12182":"Ġeating","12183":"Ġtar","12184":"_task","12185":"Ġopts","12186":"(to","12187":"Pass","12188":"Ġplastic","12190":"ĠWin","12192":"pile","12193":"ĠGar","12194":"Ġquantity","12195":"_last","12196":"Ġgreatest","12197":"Dao","12199":"ĠUsed","12201":"riting","12203":"blue","12204":"domain","12205":"Ġscores","12206":"Normal","12207":"_admin","12209":"Then","12210":"***","12211":"dist","12212":"lon","12213":"Ġhate","12216":"database","12217":"Ġpand","12218":"Ġlogic","12222":"Ġnur","12223":"OG","12224":"Ġmarried","12225":":+","12226":"Ġdropped","12227":"Ġregistration","12228":"Ð¾Ð¼","12229":"ultiple","12230":"izers","12231":"shape","12232":".copy","12233":"Ġwearing","12234":"ĠCath","12235":"Ġdedicated","12236":"Ġ...Ċ","12238":"ĠFamily","12239":"Ġstatements","12240":"ematic","12242":"Ġmotiv","12243":"ĠHave","12244":"Ġblow","12245":"Job","12246":"cert","12247":"_vector","12248":"install","12252":"ĠSpring","12253":"Ġexhib","12255":"ĠComment","12256":"ĠOptional","12257":".player","12258":"ĠDark","12259":"(pos","12260":"ĠShould","12261":"Ġcentre","12262":"ĠGuard","12263":"Ã³w","12264":"Ġtrouble","12265":"ENER","12268":"Ġns","12269":"uling","12270":"ĠMexico","12271":"ĠNY","12273":"Ġlic","12275":"Mr","12276":"-fl","12277":"ĠCustomer","12278":"idi","12281":"ĠÐ¿ÑĢ","12282":"Ġsizes","12283":"_STRING","12285":"ĠJon","12289":"Ġfragment","12290":"Ġspoke","12291":"Ġwaste","12292":"Join","12293":"Ġillustr","12294":"eli","12295":"cient","12296":"Ġaid","12299":"Ġpassing","12300":"Ġfaces","12301":"Shape","12303":"iti","12304":"Ġalle","12305":"Ġrobot","12306":"ĠĠĠĠĠĠĠĊ","12307":"ĠSpe","12308":"Ġreceiving","12309":"ĠDetails","12310":"Ġ\")","12311":"mg","12313":"Ġcomparison","12314":"*,","12315":"ĠFound","12316":"_session","12317":"(U","12318":"/F","12320":"Network","12321":"ders","12322":"Ġcapture","12324":"ĠLtd","12325":"ĠAdv","12326":"[@","12327":"Ġclip","12328":"Mill","12329":"ĠProfile","12330":"Ġendif","12331":"Ġoblig","12332":"describe","12333":".element","12336":"ered","12337":"Ġfavour","12338":"score","12339":"ĠFilter","12340":"attributes","12341":"Ġchecks","12343":"ĠPlus","12344":"Ġscientific","12345":"Ġprivacy","12346":"Head","12347":"Ġfeat","12348":"Ġdegrees","12349":"ĠPale","12350":";\">","12351":"Ġfilms","12352":"ĠAudio","12353":"ĠTag","12354":"ĠEnergy","12355":"itar","12356":"parator","12357":"Ġfellow","12359":"ĠTri","12360":"ĠDAM","12361":"cloud","12362":"ĠPassword","12363":"ĠDemocrats","12364":"ĠAcad","12366":"Ġreb","12367":"())ĊĊ","12368":"Ð½Ñĭ","12369":"ĠBur","12370":"readcr","12371":"Ġhex","12372":"Console","12374":"ousel","12375":"ĠWilliam","12376":"Ġaz","12378":"Ġpractices","12379":"Ġanywhere","12380":"ĠPosition","12381":"Ġ->Ċ","12382":"iams","12383":".username","12384":"placeholder","12385":"Ġoder","12386":"ĠSecretary","12387":"ĠiT","12388":"mond","12389":"events","12390":"?âĢĿ","12392":"Ġattached","12393":"ĠnÃ£o","12394":"Ġestate","12395":".action","12396":"Ġfigures","12400":"nam","12402":"noon","12406":"Ġwinter","12407":"ĠVariable","12408":"Ġtrees","12409":"Ġproud","12410":"(V","12412":"Ġhier","12414":"Ġfd","12415":"Ġvictims","12416":"Rest","12417":"iana","12418":"Ġfake","12420":"Ġstrlen","12421":"Ġsad","12422":"Ġble","12424":"Ġbuttons","12425":"Ġtelevision","12426":"Ġlogo","12427":"extension","12428":"ĉj","12429":"stein","12430":"aciones","12431":"Ġ\"\"\"ĊĊ","12433":"Ġrecorded","12434":"Ġbrings","12435":"Ġprincipal","12436":"Ġfees","12437":"(source","12439":"Ġutils","12440":"Ġcorrectly","12441":"fil","12442":"Ġwel","12443":"Pair","12444":"-button","12445":"scale","12446":"verify","12447":"[c","12448":"Ġ---","12449":"Ġescape","12450":"ikes","12452":"ician","12453":"Ġchapter","12454":"ĠTYPE","12455":"Ġshadow","12456":"Ġawesome","12457":"WE","12458":"elif","12459":"Ġlambda","12460":"Ġdistinct","12461":"Ġbare","12462":"-off","12463":"Ġcolour","12464":".appendChild","12465":"olec","12466":"aga","12467":".fill","12468":"ĉsuper","12469":"Ġadj","12470":"(position","12472":"Short","12473":"Ġtotally","12474":"VD","12475":"ĠTre","12477":"vements","12478":"ĠSolution","12479":"Ġfundament","12480":"Follow","12481":"Ġfacility","12482":"Ġhappening","12483":"OF","12485":"Span","12486":"ĠÂ«","12487":"iden","12488":"Ġexceed","12489":"(parent","12490":"Ġcp","12492":"Ġhasn","12493":"Ġpri","12495":"nen","12496":"ĠINTO","12497":"Ignore","12498":"ĠFuture","12499":"Ġcarbon","12500":"ĠSteel","12503":"Ġspl","12504":"(title","12505":"-info","12506":"Ġdeals","12507":"Ġfixture","12508":"ea","12509":"Div","12510":"Ġtested","12511":"_return","12512":")ĊĊĊĊ","12513":"upported","12514":"ĠCook","12515":"Ġpaying","12516":"ĠIll","12517":"Ġarrested","12518":"ĠPrime","12519":"_callback","12522":"Once","12523":"abb","12525":"ĠSets","12526":"(Object","12527":"Ġcc","12528":"Ġshell","12529":"alo","12531":"(log","12532":"ctors","12533":")</","12534":"Ġneighborhood","12535":"ailability","12536":"vol","12537":"Ġyouth","12538":"Ġtechniques","12540":"uh","12541":"mente","12542":"Ġrepository","12543":"imm","12544":"Ġcookie","12545":"JS","12547":":{","12548":"Complete","12549":"Since","12550":"Ġlaugh","12551":"_BO","12552":"enable","12553":"ĠDoes","12554":"ĠWalk","12555":"what","12556":"kes","12557":"Ġmultip","12558":"iments","12559":"eur","12560":"Ġvictory","12561":"Generator","12562":"ĠMos","12563":"rovers","12564":"Ġcompute","12565":"Ġproviders","12566":"ĠMedic","12570":"sters","12571":"_window","12572":"umeric","12574":".Response","12575":"Ġreplaced","12576":".root","12577":"-free","12578":"-container","12579":"Ġmatching","12580":"ĠEditor","12581":"=${","12582":"ĠSaf","12583":"Ġsind","12585":"åĩ","12586":".edu","12587":")];Ċ","12589":"aya","12590":"Ġdogs","12591":"Ġdesire","12592":"ĠMiddle","12593":"Cart","12594":"Theme","12596":"Ġdisplayed","12597":"igit","12598":"Ġadults","12599":"\"\"\"","12600":"Ġdelivered","12601":"visible","12602":"\":{Ċ","12604":"ĠGO","12605":"scroll","12606":"xE","12607":"Ġassigned","12609":"Ġwp","12610":"Ġcombat","12611":"ĠHaw","12612":".-","12613":"Ġsupporting","12615":"ircraft","12616":"Ġspin","12617":"ĠCR","12618":".my","12619":"à¥","12621":"Ġspaces","12622":"?,","12623":"ĠSyria","12624":"Ġpatterns","12625":"-box","12626":"Ġframework","12628":"(long","12629":"Ġteaching","12631":"_keys","12632":"Ġtables","12633":"UNC","12634":"inations","12635":"-weight","12636":"radio","12637":"ĠPac","12640":"ring","12641":"Ġquote","12642":"anna","12644":"Ġcream","12645":"Ġmachines","12646":"-k","12648":"ĠStock","12649":"rick","12650":"Ġimportance","12652":"Ãµes","12653":"ÙĪ","12654":"Ġstroke","12655":"agra","12656":"Ġtaste","12658":"Thanks","12659":"ĠRequired","12660":"ova","12661":"Media","12663":"(base","12664":"posts","12667":"Ġinterrupt","12668":"Ġ()Ċ","12669":"python","12670":"pair","12671":"Ġcircle","12672":"Ġiniti","12673":"_stream","12674":"Ġcompreh","12675":"learn","12676":"Public","12677":"Ġhumans","12678":"Ġbringing","12679":"ographic","12680":"_layer","12681":"-like","12683":"idebar","12684":"Ġvotes","12685":"Ġdesired","12686":"Mask","12687":"Ġrelation","12688":".Instance","12689":"Help","12690":"Ġinspir","12693":"ometimes","12695":"Ġrotation","12697":"/test","12699":"Star","12700":"phy","12703":"Ġincreases","12704":"_close","12707":"aza","12710":"ĠVan","12711":"Ġlights","12712":"ĠGuide","12713":"Ġdates","12715":"aman","12716":"Ġpaths","12717":".edit","12718":"ĉadd","12719":"dx","12720":"Ġreaction","12721":"ĠBeach","12723":"Environment","12724":"interest","12725":"Ġminister","12726":"Ġreaders","12727":"ĉF","12728":"Ġdomestic","12729":"Ġfiled","12730":"City","12731":"Ġmapping","12732":"ĠDES","12733":"Ġrepair","12735":"ixture","12736":"Ġnombre","12738":"zo","12741":"ĠDer","12743":"Ġgest","12744":"Ġhist","12745":"resources","12746":"Ġorphan","12747":".Are","12748":"ĠInvest","12751":"ĠRoman","12752":"Ġcultural","12754":"pts","12755":"bt","12756":"Ġdot","12757":"Ġdiam","12758":"uspend","12759":"_access","12761":"Ġsurprise","12762":"abil","12763":"Ġvirt","12764":"Ġbomb","12765":"aron","12766":"_IS","12767":"Ġvast","12768":"Real","12770":"icted","12771":"Ġpicked","12772":"ĠFL","12773":"ĠRepublicans","12774":".zeros","12775":"Pressed","12776":"sup","12777":".Core","12778":"Microsoft","12779":"services","12780":"agic","12781":"iveness","12783":"Ġroles","12784":"ras","12785":"Ġindustrial","12786":"Ġfacilities","12788":"Ġni","12789":"Ġba","12790":"Ġcls","12791":"ĉB","12792":"Customer","12793":"Ġimagine","12796":"Ġmad","12797":"(de","12798":"){ĊĊ","12799":"Ġfro","12800":"hus","12801":"Ġcommittee","12802":"ìĿ´","12803":",x","12804":"Ġdivision","12805":"(client","12807":"optional","12808":".Equal","12809":"ĠPhys","12810":"ingu","12811":"Ġsync","12812":"ĠNa","12815":"itÃ©","12816":"Ġidentifier","12817":"owed","12818":"Ġextent","12819":"Ġhur","12820":"VA","12821":"clar","12822":"Ġedges","12824":"Ġindeed","12825":"inherit","12826":"ĠNight","12827":"Ġreporting","12828":"Ġencounter","12829":"Ġkinds","12831":"Ġconsidering","12832":".(","12833":"Ġprotein","12834":"Typ","12835":"gricult","12836":"ĠBall","12839":"ĠRub","12840":"ulp","12841":"ĠĠĠĠĠĠĠĠĠĠĠĠĠĠĠĠĠĠĠĠĠĠĠĠĠĠĠĠĠĠĠĠĠĠĠĠĠĠĠĠ","12842":"itud","12843":".attr","12844":"iente","12845":"Ġspell","12846":"ĠJoe","12847":"ENTER","12848":"_host","12849":"itan","12850":"Ġmatters","12851":"Ġemergency","12852":"uated","12853":"ĠChat","12854":"={'","12856":"arker","12857":"æĪĲ","12858":"iper","12859":"Ġscheme","12860":"(stderr","12861":"Ġ*(","12862":"ceiver","12864":"Ġmarked","12866":"Ġbodies","12868":"Gap","12869":"ĠPOST","12870":"Ġcorporate","12871":"Ġdimension","12872":"Ġcontrast","12873":"erview","12874":"ĠERROR","12875":"Ġcapable","12876":"Ġadvertising","12878":"ĠPA","12879":"ĠFrancisco","12880":"Ġfacing","12881":"ãĢĮ","12882":"git","12883":"Ġbeer","12884":"Ġsky","12886":"ĠCur","12887":"mc","12888":"anny","12889":".floor","12890":"Ġcriteria","12891":"ĠparseInt","12893":"Ġaspect","12894":"Ġbundle","12895":"Could","12896":"Ġtank","12897":"-id","12898":"Ġhurt","12899":"Ġbroadcast","12901":"ownt","12902":"nullable","12903":"Cap","12904":"Ġalcohol","12905":"ĠColl","12906":"ĠHelper","12907":"ĠAf","12908":".method","12909":"Ġplanned","12910":"pler","12911":"ĠSite","12912":"Ġresc","12913":"oment","12914":"ĠJavaScript","12915":"SERVER","12916":"Ġrhs","12917":"eres","12918":"(\",","12919":"ifi","12920":".fields","12921":"Ġparking","12922":"Ġisland","12923":"Ġsister","12924":"_Ċ","12926":"ĠAust","12927":"dim","12928":"_points","12929":"Ġgap","12930":"_active","12931":"Ġvoor","12932":"ĠPO","12933":"Bag","12934":"-scale","12935":"lambda","12937":"rule","12938":"Ġowned","12939":"ĠMedical","12940":"entries","12941":"Ġsolar","12942":"Ġresulting","12943":"Ġestimated","12944":"Ġimproved","12945":"Duration","12946":"employee","12947":"$.","12948":"Actions","12949":"Like","12950":",(","12951":"(Request","12952":"%s","12953":".Open","12954":")\"Ċ","12955":"Ġpixel","12956":"Ġadapter","12957":"Ġrevenue","12958":"ogram","12959":"ĠLA","12960":"ĠMachine","12962":"Ġfle","12963":"Ġbike","12965":"Ġdisp","12966":"Ġconsistent","12967":"aÃ§Ã£o","12968":"gender","12969":"ĠThose","12970":"perience","12972":".play","12973":"Ġrush","12975":"Ġneck","12976":"_mem","12978":"_first","12980":"ĠWidget","12981":"Ġseq","12982":"har","12983":"Ġhits","12984":"ĠâĤ¬","12985":"Ġcontained","12987":"water","12989":"ĠVirginia","12990":"ĠArm","12991":"Ġ./","12992":"Â»","12993":"_root","12994":"Ġassistance","12995":"[],","12997":"Ġveget","12998":"escape","12999":"icer","13000":"boost","13001":"ĠFloat","13002":"-W","13004":"*>","13006":".pos","13007":"Ġboys","13008":"Ġwedding","13009":"Ġagents","13010":"=\"_","13011":"ĠArmy","13012":"Ġhint","13013":"vision","13014":"Ġtech","13015":"ĠConnect","13016":"Ġlegend","13017":"ĠBet","13019":"Subject","13020":"Ġlit","13021":"Remove","13022":"Ġ\":","13023":"ĠFinal","13024":"pearance","13026":"Ġparticipants","13027":"ĠPython","13028":"Ġbusy","13029":"iel","13032":"ĠClose","13033":"Img","13034":"ĠCorporation","13035":"timestamp","13036":"Ġextend","13037":"Ġwebsites","13038":"Ġpossibility","13039":"Ð¾ÑĤ","13041":"Ġmeat","13042":"Ġrepresentation","13043":"Ġĉĉ","13045":".apply","13046":"ĠValley","13047":"ĠSuccess","13048":"Hi","13049":"Ġnob","13051":"_select","13052":"geo","13053":".\")Ċ","13054":"Ġturning","13055":"Ġfabric","13057":"Ġperspective","13059":"ĠSn","13060":"Thank","13061":";j","13062":".Parameters","13063":"ĉĠĠĠĠĠĠĠĠĠĠĠ","13064":"Ġfacts","13065":"Ġunt","13066":".instance","13067":"################################################################","13068":"-end","13069":"ĠJOIN","13070":"ĠHen","13071":"Ġuri","13072":"åĲį","13073":"ĠÐ½Ð°","13074":"ĠInfo","13075":"Ġconducted","13078":"Ġwine","13079":"John","13081":"ĠAge","13082":"ounded","13083":"Ġrealize","13085":"Ġsubsequ","13086":",m","13087":"(User","13088":"iano","13089":"Ġaccompl","13090":"isp","13091":".std","13093":"ĠBed","13095":"BR","13096":"keep","13097":"ĠALL","13098":"Ġisol","13099":"amma","13100":"Package","13101":"Ġoccasion","13102":"-success","13103":"ÐµÐ´","13105":"strip","13106":"()ĊĊĊ","13108":"Colors","13111":"aler","13112":"Ġtid","13113":"ĠLED","13114":"ĠLinked","13115":"ĠCart","13116":"())čĊ","13118":"Ġkilling","13120":"fection","13121":"Ġinstances","13123":"\"/>","13124":"Ġsf","13125":"Ġtaxes","13126":"_location","13128":"uable","13129":"rank","13130":"ignore","13131":"track","13133":"Ġshouldn","13136":"Ġkm","13137":"Ġhelper","13138":"_head","13139":"ĠWhether","13140":"oco","13141":"_bl","13142":"Ġstatistics","13143":"Ġbeauty","13144":"Ġtog","13145":"tip","13147":"Ġcsv","13150":"weak","13151":"Ġlikes","13152":"Äį","13153":"Ġrepeat","13154":"Ġapartment","13155":"Ġemph","13156":"_edit","13157":"Ġvit","13158":"ĉtype","13159":"Even","13160":"uten","13161":"Ġcircumstances","13162":"bian","13163":"Ġsugar","13164":"Windows","13166":"Ġobserved","13167":"/data","13168":"Ġcalendar","13169":"Ġstrike","13170":"ĠRES","13171":"_sc","13173":"orem","13174":"(z","13175":"power","13176":"etect","13177":"ĠSat","13178":".description","13179":"Ġgang","13180":"ĠSports","13181":"ongs","13182":"ĠBundle","13184":"once","13185":"Ġaccused","13186":"Ġexplore","13187":"Ġapproximately","13188":"Ġlosing","13189":"thesis","13190":"ĠFund","13191":"Ġdiagn","13193":"properties","13194":"Ġ_.","13195":"Ġcnt","13197":"Ġyy","13198":"Ġgrant","13199":"sock","13203":"='$","13205":"UND","13206":"Ġglob","13207":"Ġdire","13208":"uffle","13209":"_MEM","13210":"Ġauthentic","13211":">(\"","13212":"Ġdecade","13213":"ĠImport","13214":"Ġoriginally","13215":"ĠjQuery","13216":"Ġindicate","13217":"Ġourselves","13218":"Sw","13220":"enerate","13221":"Ġbasically","13222":"ĠHom","13224":"ĠBritain","13225":"ĠKar","13227":".stop","13229":"isi","13230":"Ġsuggests","13231":"Ġdtype","13232":"Ġtur","13233":"bf","13234":"Ġconnections","13235":"ĠBefore","13236":"isted","13237":"mouse","13238":"Ġpulled","13240":"Ġlegislation","13241":"Ġforth","13242":"pad","13243":"ego","13245":"Ġexciting","13246":"}ĊĊĊĊ","13248":"Ġshares","13249":"Ġrig","13250":"green","13251":"_vec","13252":"Ġenumerate","13253":"Auto","13255":"ĠRay","13256":"asse","13257":"Ġholiday","13258":"Ġnullable","13259":"gun","13260":"_details","13261":"Ġwrapper","13262":"seq","13263":"ĠYoung","13265":"Ġ\"__","13267":"serve","13268":"^(","13269":"iders","13270":".Remove","13271":"ropdown","13272":"'S","13273":"pin","13275":".Default","13276":"Ġreasonable","13277":"ampion","13278":"ĠSociety","13280":"erves","13281":"rad","13282":"ĠFox","13283":"_images","13284":"Ġwheel","13285":"')[","13287":"(By","13289":"Ġvary","13290":".swift","13291":"Ġproxy","13292":"ĉH","13293":"ĠAnother","13294":"ĠPen","13295":"Ġchecking","13296":"Ġjest","13297":"manager","13298":"Origin","13299":"ugs","13300":"oir","13302":"Ġexpressed","13303":"Ġmoder","13304":"Ġagencies","13306":"-hidden","13307":"iously","13308":"ĠRod","13309":"Ġsole","13310":"Med","13311":".Any","13312":"Ġpc","13313":"bal","13314":"Example","13315":"ĠSale","13316":"Ġstrip","13317":"ĠComp","13318":"Ġpresidential","13319":"Most","13320":"putation","13321":"(ref","13322":"ĠFour","13323":"_filename","13324":"Ġenforcement","13325":"Ø¯","13326":"ĠGeorg","13327":"weights","13328":"/l","13329":"Ġaggress","13330":"Ġdrawing","13331":"andy","13333":"-j","13334":"aka","13336":"Ġteachers","13338":"(it","13339":"ĠMB","13340":"Ġtemporary","13341":"irebase","13342":"stra","13343":"æĹ¶","13345":"(label","13346":"oup","13347":"Ġtopics","13348":"Ġportion","13349":"idos","13350":"ĠJewish","13351":"Ġrecovery","13352":"Ġstands","13353":"#[","13354":"Ġafternoon","13355":"ĠArticle","13356":"_att","13357":"Ġexplan","13358":"ĠPak","13360":".children","13361":"Ġik","13362":"+(","13363":"lag","13364":"Ġdisk","13367":"asp","13368":"Ġwie","13369":"ĠAustralian","13370":"ĠYouTube","13371":"Attr","13372":"contains","13373":"duce","13374":"ĠMatt","13375":"atern","13378":"VP","13379":"oltip","13380":"Ġdelegate","13382":"Ġaccurate","13383":"ĠExample","13384":"%,","13385":"ĠDaily","13386":"Ġcabin","13387":"ĠSW","13388":"Ġlimits","13389":"kip","13390":"Ġarmy","13391":"Ġending","13392":"Ġboss","13394":"Also","13395":"=\"#\"","13396":"ordan","13397":"rowse","13398":"-min","13399":"Ġ\"&","13400":"_loc","13401":"UX","13402":"Ġdevelopers","13403":"Ġaccuracy","13404":"Ġmaintenance","13405":"Ġheav","13406":"Ġfilters","13408":"Ġnarr","13409":"ĠEmp","13410":"ORDER","13411":"ĠMobile","13414":".col","13415":"Material","13416":"uma","13417":"Ġconsumers","13418":"shift","13420":"Ġmini","13421":"collection","13422":"Ġkan","13423":".center","13424":"History","13425":"Ġbench","13426":"());","13427":"itories","13428":"Ġcrowd","13429":"_call","13430":"Ġpowers","13431":"-E","13432":"Ġdismiss","13433":"Ġtalks","13434":"ĠChannel","13435":"forward","13438":"iest","13440":"Ġbeta","13441":"(color","13444":"Ġeffectively","13445":"Camera","13446":"sd","13448":"Dict","13449":"ĠEffect","13450":"ibilities","13451":"Ġreturning","13452":"ĠFar","13453":"Ġ'')","13454":"Ġmodules","13455":"ilation","13456":"Ġ(%","13458":"Ġstorm","13459":"onna","13460":"ĠEXP","13462":"Ġdispl","13463":"ĠĠĠĠĠĠĠĠĠĠĠĠĠĠĠĠĠĠĠĠĠĠĠĠĠĠĠĠĠĠĠĠĠĠĠĠĠĠĠĠĠĠĠĠĠ","13464":"fall","13467":"_US","13469":"Ġhandles","13470":"TL","13471":"_amount","13472":"owa","13473":"brand","13474":"ĠTool","13475":"Ġusual","13477":"crement","13478":"adium","13479":"stock","13480":"Ġserving","13481":"ĠBon","13482":"Ġlinear","13483":"ĠTarget","13484":"ĠRadio","13487":"omatic","13488":"agues","13489":"inity","13490":"diff","13491":"_iterator","13492":"quot","13493":"Ġ,Ċ","13495":"Ġsymptoms","13496":"[_","13497":"ĠBul","13498":"ĠFeb","13499":"undo","13500":"_account","13502":"Ð¸Ñģ","13503":"tras","13504":"UserId","13505":"ĠPenn","13506":"ĠSupreme","13507":"}>","13508":"userId","13509":"ĠKim","13510":"Ġga","13511":"Ġartists","13514":"okemon","13515":"Ġham","13516":"oval","13517":"Ġcha","13518":"aten","13519":"åĨ","13521":"Ġvulner","13522":"ĠParameters","13523":"quantity","13526":"Ġya","13527":"Ġsoul","13529":"Ġsolo","13530":"Ġpairs","13532":"ĠGre","13533":"_word","13534":"ĠCC","13535":"Ġgi","13536":"zie","13537":"Ġscheduled","13540":"ulous","13542":"ĠEll","13544":"ĉĉĠĠ","13545":"lp","13546":"aha","13547":"Copyright","13548":"Ġdram","13549":"Ġdiagram","13550":"ĠMem","13551":"Ġgarden","13552":"Comp","13553":"Ġattempts","13555":">()","13556":"Ġphilosoph","13557":"_rel","13560":".second","13561":"anto","13563":"ĠTele","13564":"_local","13565":"_send","13566":"Ġaspects","13568":"IBLE","13569":"Ġrail","13570":"Ġwidely","13571":"ashed","13572":"iar","13573":"inf","13574":"upper","13576":"_results","13577":"issing","13578":"Ġequivalent","13579":"OUND","13580":"Ġty","13581":"Ġpotentially","13583":"ĠRecord","13584":"resentation","13586":"ounding","13587":"Ġreligion","13589":"ĠLim","13590":".am","13592":"Ġ':","13593":"PATH","13594":"_spec","13595":"orted","13596":"idades","13597":"_shape","13598":"Ġkeeps","13599":".Save","13600":"ĠLoc","13601":"ori","13602":"ĠTEST","13603":"unicip","13604":"Ġregions","13605":"Ġbelieves","13606":"/en","13608":"{'","13609":"prepare","13610":"_const","13611":"sample","13612":"ĠWilliams","13615":"ĠAndrew","13616":".active","13617":"Ġlayers","13619":"azy","13620":"ĠKn","13621":"Ġacid","13622":"ĠAsia","13623":"Ġexcess","13624":"ĉmy","13625":"Ġkeyboard","13627":"Ġcrew","13628":"Ġmissed","13629":"master","13630":"ĠWild","13631":"Ġnewly","13632":"Ġwinner","13633":"Ġstub","13634":"icode","13635":".move","13637":"ĠSar","13638":"Ġforest","13639":"LED","13640":"claimer","13641":".exit","13642":"ĠWindow","13643":"Ġresistance","13644":"ĠCHECK","13645":"(\"-","13646":"ĠRyan","13647":"Ġpipe","13648":"Ġcoast","13651":"_off","13652":"exit","13653":"Ġultimately","13655":"ĠKeep","13656":"Ġhistorical","13657":"Ġanyway","13658":"ĠJackson","13659":"ocker","13660":"ERN","13663":"ERY","13664":"isms","13665":"Ġcn","13666":"Ġoccurs","13667":"Ġ;;","13669":"AE","13671":"Ġyesterday","13672":"-default","13673":"Ġtiny","13674":"Ġproc","13675":"Ġalive","13676":"ĠREG","13677":".th","13678":"earing","13681":"_login","13683":"abc","13686":"Ġnoticed","13688":"Ġedition","13689":"imator","13692":"Ġyards","13694":"Ġverbose","13695":"Ð»Ñı","13696":"_BY","13697":".login","13698":".*;Ċ","13699":"ĠMid","13700":"Ã©es","13701":"Ġglo","13702":"Ġbuildings","13703":"Ġze","13704":"ĠIter","13705":"Ġtube","13706":"ĠPot","13708":"<th","13709":"bridge","13710":"ĠScript","13711":"ĠModule","13712":"Ġvacc","13713":"Ġinstallation","13714":"vy","13716":"ĠSM","13717":".total","13718":"bat","13719":"Ġfinds","13720":"Ġatmos","13723":"Ġreplacement","13724":"licated","13725":"apis","13726":"Ġlogged","13727":"ĠLeft","13728":"Gui","13730":"tm","13731":"Pad","13732":"Ġhousehold","13733":"Ġrele","13734":"Ġproposal","13735":"_CLASS","13737":"Ġinfrastructure","13740":"Ġads","13741":"izza","13742":"Ġmg","13743":"ctrine","13744":"%Ċ","13745":"<html","13746":"-image","13747":"Ġattorney","13748":"<m","13749":"(',","13750":"Ġcann","13751":"Ġprintln","13752":"oose","13753":"Ġyellow","13754":".exp","13755":"payment","13757":"away","13758":"Ġopposition","13759":"ĠAgain","13760":"ĠHandle","13761":"Ġexclusive","13762":"inar","13763":"Ã©r","13767":"Ġreact","13768":"pipe","13769":"cz","13770":".activity","13771":"Ġlargely","13772":"Ġdiss","13773":"axy","13774":"esis","13775":"ĠRen","13776":"Ġcorn","13778":"days","13779":"Ġfruit","13780":"Insert","13782":"Est","13783":"_dec","13784":"ĠLuc","13785":"ĠÃ¼ber","13786":"parameters","13788":"express","13789":"_profile","13791":"Ġrevolution","13792":".address","13794":"Ġuniform","13795":"ĠPack","13796":"lar","13798":"Ġdepends","13799":"Validation","13800":"confirm","13801":"Owner","13802":"Ġtrib","13803":"het","13804":"ĠIde","13805":"ansas","13806":"Language","13807":"uet","13808":"ĠPo","13809":"ĠSteve","13810":"Ġcontest","13811":"_DEFAULT","13812":"Ġapparently","13814":"Ġfrequently","13815":"Ġtradition","13817":"SI","13818":"ĠArgument","13819":"Focus","13820":"erte","13821":"ĠLayout","13822":"Ġdx","13823":"Ġgenerator","13824":"ĠWait","13825":"Policy","13826":"lights","13828":"Py","13829":"Ġbedroom","13830":"eda","13831":"raid","13832":"ĉsize","13833":"Ġancient","13834":"Ġpump","13835":"Ġdw","13836":"Ġ(!(","13837":"Ġspecify","13839":"ĠFBI","13841":"Ġremark","13842":"lymp","13843":"antee","13845":"ernet","13847":"inent","13848":"ĠRender","13849":"dm","13850":"ĠMemory","13851":"rich","13852":"ĠTools","13853":"Ġkne","13854":"Ġperm","13855":"bad","13856":"Ġdinner","13857":".reset","13859":"Feature","13861":"Ġ({Ċ","13862":"Ġreferred","13863":".classList","13864":"ĠinitWith","13866":"Ġneither","13867":"Ġcounty","13868":"Ġ\"{","13870":"Ġtack","13872":"ĠUSER","13873":"Ġrenew","13874":"``","13875":"getName","13876":"Ġbrown","13877":"Errors","13878":"erto","13879":"Ġsustain","13880":"SO","13881":"letes","13882":"ĠInvalid","13883":"Ġenemies","13884":"unge","13885":"Ġexistence","13886":"erra","13887":"ĊĠĠĊ","13888":"utorial","13889":"#a","13890":"pay","13891":"charge","13893":"atest","13894":"Ġexplos","13895":"Ġfired","13896":"NER","13897":"ĠTy","13899":"Uri","13900":"Ġobviously","13901":"ĠColum","13902":"Ġ'+","13903":"ĠDevice","13904":"-related","13907":"ĠLesser","13909":"Serializer","13910":"Ġupgrade","13911":"Light","13912":"Ġcodes","13914":"Ġwrites","13915":"food","13916":"ĠÃ©t","13918":"Ġtracks","13919":"Ġseriously","13920":"cht","13921":"(sizeof","13922":"Ġimmediate","13923":"Ġscientists","13924":"Ġ{$","13925":"_ne","13927":"Ġaccommod","13928":"ĠHarry","13929":"Ġsight","13931":"ersistent","13932":"ĠÑĥ","13933":"-input","13934":"Ġcoordinates","13935":"Â·","13936":"Welcome","13937":".conf","13938":"Ġgrew","13939":"Ġbold","13941":"(my","13942":"Ġperfectly","13943":"Ġmoments","13944":"ĠMovie","13945":"-data","13946":"ystal","13948":"ĠScreen","13950":"Ġdisap","13951":"Ġreduction","13954":"Ġgeneric","13955":"Ġdy","13956":"aller","13957":"Ġcurl","13958":"ĠBody","13959":"Ġbanks","13960":",t","13961":"avg","13962":"Ġevil","13963":"Ġmanufacturer","13964":"Ġreceiver","13965":"Columns","13966":"Ġingredients","13967":"ĉout","13968":"ques","13970":"Ġslowly","13971":"ĠTown","13972":"ĠCell","13974":"_prefix","13975":"ĠAlert","13976":"(\"{","13977":"Ã¤r","13978":"âĢľThe","13980":"Ġcourses","13981":"athan","13983":"occ","13984":"ĠSER","13985":"esign","13987":"=['","13988":"(\"./","13989":"]}","13990":".font","13991":"ĠInstagram","13992":"ĠBorder","13993":"oda","13994":"Ġhall","13995":"Ġrum","13996":"_bit","13997":"Ġsaving","13998":"_down","13999":"Random","14000":"_register","14001":"(Context","14002":"Ġopposite","14003":"Room","14004":"YES","14005":"Ð°Ð½Ð¸","14006":"Ġenjoyed","14007":"_run","14008":"Clear","14009":"âĢĺ","14010":"ĠFord","14011":"onic","14012":"osten","14013":"\"])","14014":"_auth","14016":"Ġsufficient","14017":"LES","14018":"Ġphen","14019":"Ġoh","14020":"_csv","14021":"Ġroutine","14023":"aylor","14024":"Ġbasket","14027":"Sim","14028":"ĠShop","14029":"Ġstudio","14030":"atos","14031":"(W","14032":"[string","14033":"Ã¤t","14034":"oga","14035":"Ġshr","14036":"Ġsick","14037":"Another","14038":"Ġdoors","14039":"_NE","14040":"ĠTHREE","14041":".order","14042":"razil","14043":"Ġmaps","14045":"translate","14046":"Ġnearby","14047":"Ġnach","14049":"batch","14050":"Ġlux","14051":"ashes","14052":"angers","14053":"âĢ¦âĢ¦","14054":"_EVENT","14055":"_UP","14056":"Ġacts","14057":"inv","14060":"Ġretain","14061":"utch","14062":"ĠÐ±","14063":"Ġknowing","14064":"Ġrepresenting","14065":"NOT","14068":"Ġtrick","14069":"ĠEdition","14071":"Ġcontrolled","14074":"Ġmilk","14075":"White","14076":"Sequence","14077":"awa","14078":"Ġdiscussed","14079":"ĠBush","14082":"tags","14083":"Ġtact","14084":"Ġsid","14085":"$$","14087":"Ġframes","14088":"});","14089":"Ġregul","14091":"Region","14092":"fff","14093":"Ġcro","14094":"(com","14095":"=\"+","14096":"Student","14097":"Ġdisappoint","14098":"RESULT","14099":"Counter","14100":"Ġbutter","14101":"ĠHa","14102":"ĠDigital","14103":"Ġbid","14105":"ingers","14106":"ĠCountry","14108":"\"])Ċ","14109":"/k","14110":"dating","14111":":#","14112":"ĠDATA","14113":"ynchron","14115":"ollywood","14116":"Ġvalor","14118":"oft","14121":"Ġsynchron","14122":"Ġformed","14123":"ruption","14124":"Ġlista","14126":"Ġvillage","14127":"Ġknock","14128":"ocs","14129":"\"{","14131":"Ġtransactions","14132":"Ġhabit","14133":"ĠJe","14134":"eden","14135":"Ġaircraft","14136":"irk","14137":"ĠAB","14138":"Ġfairly","14139":".inter","14141":"Ġinstrument","14145":"ĉmem","14146":"(min","14147":"Ġot","14148":"Ġcolle","14149":"=s","14151":"Ġids","14152":"ĠMatch","14153":"ijn","14154":"zero","14155":"Ġnetworks","14156":".gov","14158":"Ġsections","14159":"outine","14161":"(dir","14163":"ĠBlog","14164":"Ġbridge","14166":"convert","14167":"Ġ\")Ċ","14168":"ĠBern","14170":"eval","14171":"(set","14172":"tool","14173":"Ġpayments","14174":"Behaviour","14175":"Ġconcrete","14176":"Ġelig","14177":"Ġacceler","14178":"Ġhole","14179":"_o","14182":"Own","14184":"onder","14185":"Ġpackages","14186":"/a","14187":"ĠKnow","14188":"OrDefault","14189":"Ġduty","14190":"Wait","14191":"Ð½Ð°","14192":"_record","14193":"[t","14195":"Ġongoing","14197":"Ġtan","14198":"Ġinterpret","14199":"asters","14200":"QUAL","14201":"Ġlegs","14205":"ĠSaint","14207":"Ġprohib","14208":"(info","14209":":=","14211":"Ġblo","14212":"otic","14213":"ĉfinal","14214":"_exp","14215":"ĠStop","14216":"aping","14219":"Ġease","14223":":ĊĊĊĊ","14224":"ä»¶","14225":"oli","14226":"Ġextreme","14227":"Ġprofessor","14230":"Ġaddresses","14231":"plemented","14233":"ĠuseEffect","14234":"_OF","14235":"ĠDa","14236":"nombre","14239":"Ġcompens","14242":"aches","14243":"ĠCriteria","14244":"$result","14246":"Ġsecondary","14247":"Watch","14248":"ĠSem","14249":"ĠMcC","14250":"Ġacademic","14251":"Upper","14254":"ĠDog","14255":"aded","14256":"Validator","14257":"Ġderived","14259":"ĠKen","14260":"Ġtypical","14261":"ĠBob","14262":"Ġbounds","14263":"ĠSeason","14264":"Ġcrazy","14265":"ĠĠĠĠĠĠĠĠĠĠĠĠĠĠĠĠĠĠĠĠĠĠĠĠĠĠĠĠĠĠĠĠĠĠĠĠĠĠĠĠĠĠ","14267":"ittest","14268":"ĠMir","14269":"Ġemotional","14270":",v","14271":"cn","14272":"/st","14274":"onom","14275":"Ġdeclared","14276":">.","14277":"ailing","14279":"Ġnormally","14280":"(Me","14282":"likely","14283":"Ġpointed","14284":"ĠStack","14285":"Ġwalls","14287":"mean","14288":"]]Ċ","14289":"Ġlistening","14290":"adv","14291":"Ġswap","14293":"Øª","14295":"uls","14297":"notations","14298":"Ġemails","14300":"asta","14301":"ĠThus","14302":"ĠStone","14303":"Ġappeal","14304":".âĢĻ","14305":"Ġregulations","14306":"Preferences","14307":"ĠPhone","14308":"ulf","14309":"ĠDR","14310":"Ġtechnologies","14311":"Ġparagraph","14312":"Ġnecessarily","14313":".each","14315":"resa","14316":"Ġunderst","14317":"Ġfinger","14318":"pressed","14319":"-by","14320":"iffer","14321":"watch","14322":"ĠBa","14323":"AIM","14324":"Ġweights","14325":"ĠRon","14327":"[self","14328":"----------Ċ","14329":"periment","14330":"ĠtoString","14331":"xic","14332":"ĠCamera","14333":"!ĊĊĊĊ","14336":"Ġinstitutions","14337":":int","14338":"Ġexposure","14339":"pattern","14341":".number","14344":"ĠChief","14345":"\"},","14346":"Ġelectronic","14347":"rong","14348":"erd","14350":"rait","14351":"/',","14352":"ĠOhio","14354":"Ġcontinuing","14355":"ĠTemplate","14356":"ĠEth","14357":"sz","14360":"%.","14361":"arters","14363":"ĠTABLE","14366":"progress","14367":"Pres","14369":"implementation","14370":"Ġbien","14371":"Ġstreets","14373":"News","14374":"###","14375":":/","14376":"Ġcutting","14378":"ressed","14380":"lab","14381":"Ġcausing","14382":"]));Ċ","14383":"bra","14385":"illy","14387":"will","14388":"_bar","14389":"Ġstructures","14390":"ĠImp","14391":"ÛĮ","14392":"Ġ<>","14393":"Ġ----------------","14396":"Ġplain","14397":"Ġpeer","14398":"gg","14399":"oints","14400":"Ġsomewhat","14401":"Ġwet","14402":"Ġemployment","14403":"Ġtickets","14404":"irms","14405":"Ġtuple","14406":"sis","14408":"rig","14409":"Ġconversion","14410":"Ġges","14411":"Ġconfigure","14412":"egr","14413":"ĠCa","14414":"Ġ__('","14417":"Black","14418":"Ġmagazine","14419":"AW","14421":"osing","14422":"Ġbroke","14423":"ĠCru","14425":"Ġdestroyed","14427":"Ġapproval","14428":"-dom","14429":"ĠIII","14431":"Ġdesigns","14432":"Ġcrushing","14433":"Ġconsent","14435":"omp","14436":"Ġcrypt","14437":"?(","14438":"orough","14439":".o","14440":"ĉlist","14442":".\"\"\"Ċ","14443":"erring","14444":"Google","14445":"_pair","14448":"Ġgear","14449":"Fill","14450":"life","14451":"}\")Ċ","14452":"Ġsuitable","14453":"Ġsurprised","14455":"Ġmanifest","14456":"atten","14457":"Ġfrustr","14459":".click","14460":"Ġii","14461":"Ġexpansion","14462":"igs","14463":"Parse","14465":"Rob","14466":"_layout","14468":"Ġtranslation","14469":"ĠBeaut","14470":"Best","14472":"<label","14473":"Ġliquid","14474":"ITS","14475":"Ġprod","14476":"Ġoperate","14478":"Ġnatur","14479":"argument","14480":"_detail","14481":"ĠCentre","14482":"Ġ\"--","14483":"Ġ}}\"","14484":"locale","14486":"_seq","14487":"Ġupcoming","14488":"Chart","14489":"ĠDivision","14490":"Ġclinical","14491":"Company","14492":"Separ","14493":"las","14494":"ĠHun","14495":":s","14496":"Ġheading","14497":"Ð¾Ð³","14499":"[id","14500":"bia","14501":"Ġstretch","14502":"icide","14503":"Ġreprodu","14506":"enders","14507":"Ġresponses","14508":"Ġont","14509":"ritical","14510":"Ġrefuge","14511":"ĠLi","14512":"Ġ:ĊĊ","14513":"ĠThree","14516":"_FOR","14518":"jax","14520":"Ġâĸ","14521":"Ġcovers","14522":"ĉy","14523":"-.","14525":"Ġfails","14526":"includes","14527":"Ġfault","14528":"Ġly","14529":"Ã±o","14530":".slice","14531":"ILED","14532":"ĠPur","14533":"ĠAsian","14534":"_batch","14536":"vl","14538":"Ġgiant","14539":"ĠManual","14540":"ĠCopy","14542":"Health","14545":"Ġtwe","14546":"æ³","14548":"Ġcollected","14549":"Ġfurniture","14550":"Ġdealing","14552":"ĠHotel","14553":"cks","14554":"Ġchose","14555":"âĶĢ","14556":"odd","14557":"SR","14558":"ÙĬ","14560":"Ġaccord","14561":"ĠMove","14562":"ĠMode","14563":"ĠMock","14564":"Ġthreads","14566":"ĠOptions","14568":"ĠDid","14570":"ucc","14572":".abs","14573":"Ġ{},Ċ","14574":"ĠWal","14575":"erior","14576":"Ġmainly","14577":"ĠDriver","14578":"NotFoundException","14579":"Ġcounts","14580":"eam","14581":"Ġ&=","14582":"Question","14583":"ĠAli","14584":"Ġanymore","14585":"detail","14586":"tail","14587":"Ġmile","14588":"ĠFair","14589":"Ġsorry","14590":"Ġsurrounding","14591":"Ġadm","14592":"Dev","14594":"ĠSound","14595":"ĠAsh","14596":"FD","14597":"Team","14599":"Ġ[]ĊĊ","14600":"ubble","14601":"Ġasc","14602":"Ġintention","14603":"Acc","14604":"chi","14605":"usters","14606":"Ġinspired","14609":"Ġmanip","14611":"Connect","14612":"ĠBeh","14613":"Ġfindings","14614":"Ġassembly","14615":"world","14616":"Ġremained","14617":"Ġuid","14618":"(.","14619":"Ġmx","14620":"Loop","14621":"ĊĊĊĊĊ","14622":"Ġfantastic","14623":"who","14624":"aki","14625":"ĠBasic","14626":"ĠYet","14627":"ĠUsers","14629":"Ġheads","14630":"ĠMichigan","14631":"_it","14632":"ĠToronto","14633":"Ġrecording","14634":"Ġsubmitted","14636":"mediate","14638":"Ġstood","14639":"Ġrear","14640":"velocity","14643":"roles","14644":"ĠTour","14645":"_year","14647":"amps","14648":"ĠIreland","14649":"mal","14650":"Ġyounger","14651":"Ġstruggle","14652":"Ġcable","14654":"('-","14655":"anes","14656":"ĠNeed","14657":".Row","14658":"Pol","14659":"ĠPH","14660":"_script","14661":"agem","14662":"ĠBas","14663":"_space","14664":".loc","14665":":i","14666":"adr","14667":"Ġengineering","14668":"iten","14669":")&","14670":"Ġuk","14671":"ĠLittle","14674":"ArrayList","14676":"Ġ\"\")Ċ","14677":"Anchor","14678":"Ġhang","14680":"Ġcompetitive","14682":"ãģĹ","14683":"Ġtranslate","14684":"ĠCreates","14685":"ooks","14686":"ĠRoll","14687":"'''Ċ","14688":"/sh","14689":"some","14692":"Ġdesigner","14693":"ĠStorage","14695":"ĠNever","14696":"Ġsomewhere","14697":"Ġboxes","14698":".source","14699":"Ġpygame","14700":"Ġgrown","14701":".tw","14702":"()),Ċ","14704":"Ġopponent","14705":"(src","14706":".layer","14708":"ĠActiv","14709":"Ġguests","14710":"ĠVALUES","14713":"Ġamounts","14714":".RE","14715":"Ġclone","14716":"Ġweren","14717":"Ġ\"<<","14718":"_ac","14719":"Ġbreaking","14720":"Ġreliable","14722":"ĠSky","14723":"Ġ'&","14725":"asting","14726":"illion","14728":"ulty","14731":"ĠĊĊĊ","14733":"Ġpurchased","14737":"complete","14738":"_graph","14740":"Ġsituations","14741":"ĠHor","14743":"âĢľWe","14744":"Ġentities","14746":"Ð¾Ðº","14747":"ĠSans","14749":"rompt","14750":"=Ċ","14753":"ylv","14754":"Ġbatt","14756":"Ġincreasingly","14757":".Bundle","14758":"Ġexplains","14759":"theast","14761":"Ġhal","14762":"Ġtechnique","14763":"_limit","14764":"Ġdrawn","14766":"Ġfeatured","14767":"yyyy","14768":"atin","14769":"phen","14770":"achel","14771":"!\\","14772":"lower","14773":"ĠGR","14774":"Ġpag","14775":"ĠParse","14776":"Ġtou","14777":"ä¸Ģ","14778":"Distance","14780":"Ġhell","14781":"sim","14783":"Usage","14784":"elenium","14785":"ĠFall","14787":"ĠMu","14788":"Ġcruc","14789":"Ġsont","14791":"Ġinterior","14792":"ĠOlymp","14794":"para","14795":"AxisAlignment","14796":"Ġriver","14797":"Dto","14798":"Ġwithdraw","14799":"React","14800":"-class","14801":"before","14802":"_alloc","14803":"Contents","14804":"ĠWas","14805":"ICT","14806":"Ġformula","14807":"Ġindicates","14808":"ĠĠĠĠĊĊ","14809":"_store","14810":"itting","14811":"ĠItalian","14812":"_Set","14813":"_report","14814":"Ġpid","14816":"Ġwins","14817":"ĠCloud","14818":"\"){Ċ","14819":"chester","14820":"Ġdenied","14821":"Ġwird","14822":"ĠStep","14823":"Ġinvestors","14824":"bold","14825":"_display","14826":"ouver","14827":"orer","14828":"Reset","14829":"Ġsurgery","14830":"Ġstrategies","14831":"/material","14833":"Ġcouncil","14834":".Per","14835":"ĠâĢŀ","14836":"Ġreform","14838":"Ġlisting","14839":"_btn","14840":"Ġbis","14841":"%d",
[...]
